<unk>	0
<s>	0
</s>	0

	0
<2ace>	0
<2ace_Arab>	0
<2af>	0
<2am>	0
<2an>	0
<2ar>	0
<2ary>	0
<2arz>	0
<2as>	0
<2az>	0
<2ba>	0
<2ban>	0
<2bar>	0
<2be>	0
<2bg>	0
<2bho>	0
<2bjn>	0
<2bjn_Arab>	0
<2bm>	0
<2bn>	0
<2br>	0
<2bs>	0
<2bug>	0
<2ca>	0
<2ceb>	0
<2crh_Latn>	0
<2cs>	0
<2cy>	0
<2da>	0
<2de>	0
<2din>	0
<2dv>	0
<2dz>	0
<2el>	0
<2en>	0
<2eo>	0
<2es>	0
<2et>	0
<2eu>	0
<2fa>	0
<2fi>	0
<2fo>	0
<2fr>	0
<2fr_CA>	0
<2fur>	0
<2fuv>	0
<2fy>	0
<2ga>	0
<2gd>	0
<2gl>	0
<2gn>	0
<2gu>	0
<2ha>	0
<2he>	0
<2hi>	0
<2hne>	0
<2hr>	0
<2hu>	0
<2hy>	0
<2id>	0
<2ig>	0
<2io>	0
<2is>	0
<2it>	0
<2iu>	0
<2ja>	0
<2jv>	0
<2ka>	0
<2kk>	0
<2km>	0
<2kn>	0
<2ko>	0
<2kr>	0
<2kr_Arab>	0
<2ks>	0
<2ks_Deva>	0
<2ku>	0
<2ky>	0
<2la>	0
<2lb>	0
<2li>	0
<2lij>	0
<2lmo>	0
<2lt>	0
<2ltg>	0
<2lv>	0
<2mag>	0
<2mg>	0
<2mi>	0
<2mk>	0
<2ml>	0
<2mn>	0
<2mni>	0
<2mr>	0
<2ms>	0
<2mt>	0
<2mwl>	0
<2my>	0
<2>	0
<2nds>	0
<2nds_NL>	0
<2ne>	0
<2nl>	0
<2nn>	0
<2no>	0
<2nus>	0
<2oc>	0
<2or>	0
<2pa>	0
<2pl>	0
<2prs>	0
<2ps>	0
<2pt>	0
<2ro>	0
<2ru>	0
<2rw>	0
<2sc>	0
<2scn>	0
<2sd>	0
<2se>	0
<2sh>	0
<2shn>	0
<2si>	0
<2en_xx_simple>	0
<2sk>	0
<2sl>	0
<2so>	0
<2sq>	0
<2sr>	0
<2sv>	0
<2sw>	0
<2szl>	0
<2ta>	0
<2taq>	0
<2taq_Tfng>	0
<2te>	0
<2tg>	0
<2th>	0
<2tk>	0
<2fil>	0
<2tr>	0
<2tt>	0
<2tzm>	0
<2ug>	0
<2uk>	0
<2ur>	0
<2uz>	0
<2vec>	0
<2vi>	0
<2wa>	0
<2wuu>	0
<2xh>	0
<2yi>	0
<2yo>	0
<2zh>	0
<2zh_Hant>	0
<2zu>	0
<2abt>	0
<2acf>	0
<2ada>	0
<2adh>	0
<2ady>	0
<2agr>	0
<2ahk>	0
<2ak>	0
<2akb>	0
<2alt>	0
<2alz>	0
<2amu>	0
<2ang>	0
<2ann>	0
<2ape>	0
<2arn>	0
<2av>	0
<2awa>	0
<2ay>	0
<2az_RU>	0
<2bas>	0
<2bbc>	0
<2bci>	0
<2ber>	0
<2ber_Latn>	0
<2bew>	0
<2bg_Latn>	0
<2bgp>	0
<2bi>	0
<2bik>	0
<2bim>	0
<2bn_Latn>	0
<2bo>	0
<2bqc>	0
<2bru>	0
<2brx>	0
<2bts>	0
<2btx>	0
<2bua>	0
<2bus>	0
<2bzj>	0
<2cab>	0
<2cac>	0
<2cak>	0
<2cbk>	0
<2cce>	0
<2ce>	0
<2cfm>	0
<2ch>	0
<2chk>	0
<2chm>	0
<2chr>	0
<2ckb>	0
<2cnh>	0
<2co>	0
<2cr_Latn>	0
<2crh>	0
<2crs>	0
<2ctd_Latn>	0
<2ctu>	0
<2cuk>	0
<2cv>	0
<2dje>	0
<2djk>	0
<2dln>	0
<2doi>	0
<2dov>	0
<2dtp>	0
<2zxx_xx_dtynoise>	0
<2dwr>	0
<2dyu>	0
<2ee>	0
<2el_Latn>	0
<2emp>	0
<2enq>	0
<2bum>	0
<2ff>	0
<2ffm>	0
<2fip>	0
<2fj>	0
<2fon>	0
<2frp>	0
<2gag>	0
<2gbm>	0
<2gof>	0
<2gom>	0
<2gom_Latn>	0
<2gor>	0
<2grc>	0
<2gsw>	0
<2gu_Latn>	0
<2gub>	0
<2guc>	0
<2guh>	0
<2gui>	0
<2gv>	0
<2gvl>	0
<2gym>	0
<2haw>	0
<2hi_Latn>	0
<2hif>	0
<2hil>	0
<2hmn>	0
<2ho>	0
<2ht>	0
<2hui>	0
<2hus>	0
<2hvn>	0
<2iba>	0
<2ibb>	0
<2ify>	0
<2ilo>	0
<2inb>	0
<2iso>	0
<2ium>	0
<2izz>	0
<2jac>	0
<2jam>	0
<2jiv>	0
<2jvn>	0
<2kaa>	0
<2kaa_Latn>	0
<2kac>	0
<2kbd>	0
<2kbp>	0
<2kek>	0
<2kg>	0
<2kha>	0
<2kj>	0
<2kjg>	0
<2kjh>	0
<2kl>	0
<2kmb>	0
<2kmz_Latn>	0
<2kn_Latn>	0
<2knj>	0
<2koi>	0
<2kos>	0
<2krc>	0
<2kri>	0
<2ksd>	0
<2ksw>	0
<2ktu>	0
<2kum>	0
<2kv>	0
<2kw>	0
<2kwi>	0
<2laj>	0
<2lg>	0
<2lhu>	0
<2ln>	0
<2lo>	0
<2lrc>	0
<2lu>	0
<2lus>	0
<2mad>	0
<2mai>	0
<2mak>	0
<2mam>	0
<2mas>	0
<2maz>	0
<2mbt>	0
<2mdf>	0
<2meo>	0
<2meu>	0
<2mfe>	0
<2mgh>	0
<2mh>	0
<2min>	0
<2miq>	0
<2mkn>	0
<2ml_Latn>	0
<2mps>	0
<2mqy>	0
<2mrj>	0
<2mrw>	0
<2ms_Arab>	0
<2ms_Arab_BN>	0
<2msb>	0
<2msi>	0
<2msm>	0
<2myv>	0
<2nan_Latn_TW>	0
<2ndc_ZW>	0
<2new>	0
<2ngu>	0
<2nhe>	0
<2nia>	0
<2nij>	0
<2niq>	0
<2nnb>	0
<2noa>	0
<2nog>	0
<2nr>	0
<2nso>	0
<2nut>	0
<2nv>	0
<2ny>	0
<2nyu>	0
<2nzi>	0
<2oj>	0
<2om>	0
<2os>	0
<2otq>	0
<2pag>	0
<2pap>	0
<2pau>	0
<2pck>	0
<2pis>	0
<2pon>	0
<2ppk>	0
<2qu>	0
<2qub>	0
<2quc>	0
<2quf>	0
<2quh>	0
<2qup>	0
<2quy>	0
<2qvc>	0
<2qvi>	0
<2qvz>	0
<2qxr>	0
<2raj>	0
<2rcf>	0
<2rki>	0
<2rm>	0
<2rmc>	0
<2rn>	0
<2rom>	0
<2ru_Latn>	0
<2rwo>	0
<2sa>	0
<2sah>	0
<2sat_Latn>	0
<2sda>	0
<2seh>	0
<2sg>	0
<2shp>	0
<2sja>	0
<2skr>	0
<2sm>	0
<2smt>	0
<2sn>	0
<2spp>	0
<2srm>	0
<2srn>	0
<2ss>	0
<2st>	0
<2stq>	0
<2su>	0
<2sus>	0
<2suz>	0
<2sxn>	0
<2syr>	0
<2ta_Latn>	0
<2tab>	0
<2taj>	0
<2tbz>	0
<2tca>	0
<2tcy>	0
<2tdx>	0
<2te_Latn>	0
<2teo>	0
<2tet>	0
<2ti>	0
<2tiv>	0
<2tks>	0
<2tlh>	0
<2tll>	0
<2tly_IR>	0
<2tn>	0
<2to>	0
<2toj>	0
<2trp>	0
<2ts>	0
<2tsc>	0
<2tsg>	0
<2tuc>	0
<2tvl>	0
<2twu>	0
<2tyv>	0
<2tyz>	0
<2tzh>	0
<2tzj>	0
<2tzo>	0
<2ubu>	0
<2udm>	0
<2ve>	0
<2wal>	0
<2war>	0
<2wo>	0
<2xal>	0
<2yap>	0
<2yua>	0
<2zap>	0
<2zh_Latn>	0
<2zne>	0
<2zza>	0
<2Latn>	0
<2Arab>	0
<2Ethi>	0
<2Beng>	0
<2Cyrl>	0
<2Deva>	0
<2Thaa>	0
<2Tibt>	0
<2Grek>	0
<2Gujr>	0
<2Hebr>	0
<2Armn>	0
<2Cans>	0
<2Jpan>	0
<2Geor>	0
<2Khmr>	0
<2Knda>	0
<2Kore>	0
<2Mlym>	0
<2Mymr>	0
<2Orya>	0
<2Guru>	0
<2Taml>	0
<2Tfng>	0
<2Telu>	0
<2Thai>	0
#N/A	0
<2Hans>	0
<2Hant>	0
<2Cher>	0
<2CA>	0
<2NL>	0
<2RU>	0
<2ZW>	0
<2IR>	0
<mask>	0
<2translate>	0
<2transliterate>	0
<2mass>	0
<2back_translated>	0
<ctrl1>	0
<ctrl2>	0
<ctrl3>	0
<ctrl4>	0
<ctrl5>	0
<ctrl6>	0
<ctrl7>	0
<ctrl8>	0
<ctrl9>	0
<ctrl10>	0
<ctrl11>	0
<ctrl12>	0
<ctrl13>	0
<ctrl14>	0
<ctrl15>	0
<ctrl16>	0
<ctrl17>	0
<ctrl18>	0
<ctrl19>	0
<ctrl20>	0
<ctrl21>	0
<ctrl22>	0
<ctrl23>	0
<ctrl24>	0
<ctrl25>	0
<ctrl26>	0
<ctrl27>	0
<ctrl28>	0
<ctrl29>	0
<ctrl30>	0
<ctrl31>	0
<ctrl32>	0
<ctrl33>	0
<ctrl34>	0
<ctrl35>	0
<ctrl36>	0
<ctrl37>	0
<ctrl38>	0
<ctrl39>	0
<ctrl40>	0
<ctrl41>	0
<ctrl42>	0
<ctrl43>	0
<ctrl44>	0
<ctrl45>	0
<ctrl46>	0
<ctrl47>	0
<ctrl48>	0
<ctrl49>	0
<ctrl50>	0
<0x00>	0
<0x01>	0
<0x02>	0
<0x03>	0
<0x04>	0
<0x05>	0
<0x06>	0
<0x07>	0
<0x08>	0
<0x09>	0
<0x0A>	0
<0x0B>	0
<0x0C>	0
<0x0D>	0
<0x0E>	0
<0x0F>	0
<0x10>	0
<0x11>	0
<0x12>	0
<0x13>	0
<0x14>	0
<0x15>	0
<0x16>	0
<0x17>	0
<0x18>	0
<0x19>	0
<0x1A>	0
<0x1B>	0
<0x1C>	0
<0x1D>	0
<0x1E>	0
<0x1F>	0
<0x20>	0
<0x21>	0
<0x22>	0
<0x23>	0
<0x24>	0
<0x25>	0
<0x26>	0
<0x27>	0
<0x28>	0
<0x29>	0
<0x2A>	0
<0x2B>	0
<0x2C>	0
<0x2D>	0
<0x2E>	0
<0x2F>	0
<0x30>	0
<0x31>	0
<0x32>	0
<0x33>	0
<0x34>	0
<0x35>	0
<0x36>	0
<0x37>	0
<0x38>	0
<0x39>	0
<0x3A>	0
<0x3B>	0
<0x3C>	0
<0x3D>	0
<0x3E>	0
<0x3F>	0
<0x40>	0
<0x41>	0
<0x42>	0
<0x43>	0
<0x44>	0
<0x45>	0
<0x46>	0
<0x47>	0
<0x48>	0
<0x49>	0
<0x4A>	0
<0x4B>	0
<0x4C>	0
<0x4D>	0
<0x4E>	0
<0x4F>	0
<0x50>	0
<0x51>	0
<0x52>	0
<0x53>	0
<0x54>	0
<0x55>	0
<0x56>	0
<0x57>	0
<0x58>	0
<0x59>	0
<0x5A>	0
<0x5B>	0
<0x5C>	0
<0x5D>	0
<0x5E>	0
<0x5F>	0
<0x60>	0
<0x61>	0
<0x62>	0
<0x63>	0
<0x64>	0
<0x65>	0
<0x66>	0
<0x67>	0
<0x68>	0
<0x69>	0
<0x6A>	0
<0x6B>	0
<0x6C>	0
<0x6D>	0
<0x6E>	0
<0x6F>	0
<0x70>	0
<0x71>	0
<0x72>	0
<0x73>	0
<0x74>	0
<0x75>	0
<0x76>	0
<0x77>	0
<0x78>	0
<0x79>	0
<0x7A>	0
<0x7B>	0
<0x7C>	0
<0x7D>	0
<0x7E>	0
<0x7F>	0
<0x80>	0
<0x81>	0
<0x82>	0
<0x83>	0
<0x84>	0
<0x85>	0
<0x86>	0
<0x87>	0
<0x88>	0
<0x89>	0
<0x8A>	0
<0x8B>	0
<0x8C>	0
<0x8D>	0
<0x8E>	0
<0x8F>	0
<0x90>	0
<0x91>	0
<0x92>	0
<0x93>	0
<0x94>	0
<0x95>	0
<0x96>	0
<0x97>	0
<0x98>	0
<0x99>	0
<0x9A>	0
<0x9B>	0
<0x9C>	0
<0x9D>	0
<0x9E>	0
<0x9F>	0
<0xA0>	0
<0xA1>	0
<0xA2>	0
<0xA3>	0
<0xA4>	0
<0xA5>	0
<0xA6>	0
<0xA7>	0
<0xA8>	0
<0xA9>	0
<0xAA>	0
<0xAB>	0
<0xAC>	0
<0xAD>	0
<0xAE>	0
<0xAF>	0
<0xB0>	0
<0xB1>	0
<0xB2>	0
<0xB3>	0
<0xB4>	0
<0xB5>	0
<0xB6>	0
<0xB7>	0
<0xB8>	0
<0xB9>	0
<0xBA>	0
<0xBB>	0
<0xBC>	0
<0xBD>	0
<0xBE>	0
<0xBF>	0
<0xC0>	0
<0xC1>	0
<0xC2>	0
<0xC3>	0
<0xC4>	0
<0xC5>	0
<0xC6>	0
<0xC7>	0
<0xC8>	0
<0xC9>	0
<0xCA>	0
<0xCB>	0
<0xCC>	0
<0xCD>	0
<0xCE>	0
<0xCF>	0
<0xD0>	0
<0xD1>	0
<0xD2>	0
<0xD3>	0
<0xD4>	0
<0xD5>	0
<0xD6>	0
<0xD7>	0
<0xD8>	0
<0xD9>	0
<0xDA>	0
<0xDB>	0
<0xDC>	0
<0xDD>	0
<0xDE>	0
<0xDF>	0
<0xE0>	0
<0xE1>	0
<0xE2>	0
<0xE3>	0
<0xE4>	0
<0xE5>	0
<0xE6>	0
<0xE7>	0
<0xE8>	0
<0xE9>	0
<0xEA>	0
<0xEB>	0
<0xEC>	0
<0xED>	0
<0xEE>	0
<0xEF>	0
<0xF0>	0
<0xF1>	0
<0xF2>	0
<0xF3>	0
<0xF4>	0
<0xF5>	0
<0xF6>	0
<0xF7>	0
<0xF8>	0
<0xF9>	0
<0xFA>	0
<0xFB>	0
<0xFC>	0
<0xFD>	0
<0xFE>	0
<0xFF>	0
▁	-3.07744
,	-3.79703
.	-3.87494
1	-4.92185
a	-4.94489
-	-5.04718
▁a	-5.06268
2	-5.22337
i	-5.25838
0	-5.30404
e	-5.32032
s	-5.32359
'	-5.40065
n	-5.50211
▁na	-5.53312
:	-5.5565
o	-5.5952
▁i	-5.68152
t	-5.75303
’	-5.75743
u	-5.76606
▁e	-5.78707
3	-5.91204
na	-5.93983
▁de	-5.97776
▁(	-6.0123
▁ka	-6.03693
4	-6.11251
5	-6.12971
ʼ	-6.16036
)	-6.16037
▁o	-6.22378
▁la	-6.22525
▁ma	-6.22786
m	-6.2471
9	-6.25031
ta	-6.29774
▁di	-6.30013
k	-6.30837
an	-6.30884
▁u	-6.34543
▁ni	-6.34586
▁te	-6.35472
6	-6.37097
7	-6.39767
8	-6.39996
y	-6.40272
▁in	-6.40907
▁sa	-6.4099
r	-6.47743
ka	-6.49473
▁ta	-6.5034
?	-6.50823
h	-6.52813
▁ya	-6.53894
▁ti	-6.54082
la	-6.57556
ma	-6.59889
▁le	-6.609
▁ki	-6.61485
▁ne	-6.62054
▁se	-6.62067
d	-6.62085
ni	-6.62469
▁ba	-6.62797
▁“	-6.63609
I	-6.6471
l	-6.6799
te	-6.68797
in	-6.70278
▁ku	-6.73182
▁da	-6.73469
▁ke	-6.75603
da	-6.76522
▁A	-6.76982
▁ko	-6.77212
ne	-6.79508
ti	-6.79915
le	-6.82186
▁to	-6.83733
▁si	-6.84169
▁an	-6.85077
g	-6.85406
ra	-6.87528
c	-6.88123
▁me	-6.88872
▁pa	-6.88922
▁wa	-6.89211
▁nga	-6.90393
p	-6.912
mi	-6.91938
to	-6.94244
de	-6.94784
;	-6.95249
si	-6.96014
ga	-6.96589
▁n	-6.96744
re	-6.98213
li	-6.98756
b	-6.9885
▁mu	-6.99536
sa	-6.99949
j	-7.00075
ˈ	-7.01137
en	-7.02608
▁li	-7.02844
ya	-7.0337
di	-7.03654
wa	-7.04241
ba	-7.0501
se	-7.05602
▁ha	-7.07513
▁en	-7.07798
ko	-7.08127
▁be	-7.08246
no	-7.08299
▁mi	-7.09035
​	-7.1011
▁-	-7.12188
al	-7.12886
▁no	-7.13187
pa	-7.14239
▁ri	-7.14983
▁I	-7.15649
▁k	-7.16021
ke	-7.16415
▁ja	-7.1658
­	-7.16974
w	-7.17533
z	-7.19823
▁do	-7.19854
▁mo	-7.20342
ri	-7.22075
▁l	-7.24118
tu	-7.24329
me	-7.24385
ng	-7.24473
▁ye	-7.25177
ki	-7.26143
▁tu	-7.26998
ar	-7.27107
ku	-7.3066
lo	-7.31039
ch	-7.33115
ha	-7.33338
ro	-7.36872
ja	-7.37523
v	-7.37676
а	-7.38292
▁E	-7.39836
▁so	-7.40846
▁ra	-7.42368
▁d	-7.42653
æ	-7.43404
▁re	-7.44239
▁pe	-7.44378
▁bi	-7.44401
er	-7.44746
”	-7.44861
go	-7.45229
ye	-7.45454
،	-7.46592
▁lo	-7.48301
▁hi	-7.48367
mu	-7.49768
be	-7.49954
▁ga	-7.50547
н	-7.50659
▁je	-7.51054
=	-7.5116
।	-7.53143
▁"	-7.53289
va	-7.53539
е	-7.54412
▁su	-7.54456
yo	-7.54956
▁he	-7.55816
м	-7.56126
pi	-7.56193
x	-7.5659
man	-7.56659
mo	-7.57151
un	-7.57683
и	-7.5807
ca	-7.58095
lu	-7.58331
on	-7.58463
q	-7.59351
▁s	-7.59352
pe	-7.59498
!	-7.59981
▁c	-7.61053
ë	-7.62109
ru	-7.62476
▁O	-7.62565
do	-7.64138
is	-7.64416
▁y	-7.64818
▁bo	-7.6487
꞉	-7.65315
▁‘	-7.66021
nu	-7.66031
we	-7.66374
ö	-7.66527
/	-7.66614
es	-7.67361
▁ho	-7.6745
ge	-7.67566
bi	-7.6768
A	-7.68095
▁du	-7.68173
gi	-7.68467
je	-7.68604
▁«	-7.68811
zi	-7.69267
▁va	-7.69541
at	-7.7003
▁go	-7.70439
▁t	-7.70969
▁fa	-7.71106
▁–	-7.71862
р	-7.72168
f	-7.72717
▁m	-7.73537
ì	-7.73619
т	-7.7363
▁S	-7.7425
.”	-7.7432
▁po	-7.74663
ʻ	-7.74838
▁nu	-7.75111
za	-7.75241
▁un	-7.75761
chi	-7.75972
el	-7.77263
as	-7.77301
▁ve	-7.77563
▁Na	-7.77563
▁we	-7.78152
▁b	-7.79815
í	-7.79891
▁kan	-7.8083
il	-7.81042
▁el	-7.81084
▁ar	-7.81763
▁za	-7.81949
du	-7.82915
▁ai	-7.85116
▁Ma	-7.85126
▁N	-7.85239
ji	-7.85522
▁er	-7.85763
▁man	-7.86051
у	-7.86687
é	-7.87397
ve	-7.87637
▁yo	-7.87949
▁U	-7.87989
so	-7.88141
к	-7.88872
he	-7.89079
"	-7.89305
▁yi	-7.89308
ak	-7.89711
ی	-7.90092
bo	-7.90462
▁is	-7.9128
am	-7.9144
kan	-7.91455
▁bu	-7.91543
st	-7.92165
▁و	-7.92181
gu	-7.92482
ci	-7.92549
po	-7.92605
ho	-7.92935
bu	-7.9323
д	-7.93239
▁ca	-7.93795
wi	-7.93848
wo	-7.94341
▁che	-7.94652
ce	-7.94658
▁и	-7.94987
▁chi	-7.95341
▁que	-7.95342
hi	-7.95954
yi	-7.97102
it	-7.97297
).	-7.97465
▁Ka	-7.98294
su	-7.98888
с	-7.98937
▁pi	-8.01303
et	-8.01319
▁K	-8.01714
vi	-8.02075
й	-8.02326
▁'	-8.03164
ny	-8.03529
▁M	-8.03599
fa	-8.04155
ia	-8.05272
▁La	-8.05273
л	-8.05421
▁ia	-8.06933
hu	-8.07025
▁yu	-8.07976
да	-8.08093
▁the	-8.08562
»	-8.08612
г	-8.08917
co	-8.09351
▁gi	-8.09873
▁на	-8.10201
▁v	-8.10396
ju	-8.10505
▁cu	-8.11154
ê	-8.1118
ن	-8.11533
▁के	-8.12183
▁of	-8.12291
▁B	-8.12394
us	-8.12475
▁T	-8.12601
▁да	-8.13237
ă	-8.13723
▁on	-8.13747
▁per	-8.14435
ana	-8.14839
▁wi	-8.15239
▁at	-8.15635
▁د	-8.15719
х	-8.16
os	-8.16244
▁fi	-8.16491
▁wo	-8.16891
tan	-8.17513
▁dan	-8.17604
▁lu	-8.17761
▁ge	-8.18295
th	-8.18389
на	-8.18641
G	-8.18774
▁Se	-8.19094
ze	-8.19539
nya	-8.19809
▁for	-8.20434
▁ji	-8.20918
ang	-8.21036
ه	-8.21087
ш	-8.21904
um	-8.2238
ed	-8.23233
pu	-8.23234
▁al	-8.23605
vo	-8.24363
E	-8.25405
nga	-8.25701
▁Sa	-8.25959
▁Ta	-8.26179
▁—	-8.26381
▁ch	-8.26822
▁ci	-8.26836
▁og	-8.27109
zo	-8.27497
ah	-8.27785
▁Dios	-8.28217
ы	-8.28336
jo	-8.28444
▁pu	-8.2872
á	-8.28736
▁P	-8.29217
▁par	-8.29352
ни	-8.30593
sh	-8.30865
▁Ba	-8.30895
S	-8.30945
п	-8.31544
▁mai	-8.31664
▁g	-8.31719
▁gu	-8.31874
nda	-8.32048
▁ʻ	-8.3207
fi	-8.32191
ir	-8.32403
▁para	-8.32443
▁and	-8.32469
lla	-8.32837
▁fu	-8.33062
è	-8.3379
▁ang	-8.3397
▁Si	-8.3398
dan	-8.34491
or	-8.35054
▁ng	-8.35154
▁C	-8.35285
yu	-8.35437
э	-8.36048
ran	-8.36056
▁h	-8.3648
ur	-8.36665
ي	-8.37041
ь	-8.37223
wan	-8.37621
O	-8.37683
▁den	-8.37688
و	-8.3788
▁nan	-8.37981
sha	-8.38264
id	-8.3828
▁а	-8.38327
в	-8.38434
ai	-8.38669
...	-8.38779
cha	-8.39165
▁D	-8.39655
▁jo	-8.40091
▁cha	-8.40122
▁Pa	-8.40251
і	-8.40447
▁et	-8.40685
न	-8.41046
Ø	-8.41616
lan	-8.41803
क	-8.42334
▁p	-8.4257
▁у	-8.42628
mba	-8.42749
о	-8.42846
ik	-8.42993
▁De	-8.43448
▁ro	-8.44006
▁ju	-8.44106
▁к	-8.44227
，	-8.44429
▁mga	-8.44863
ꞌ	-8.45039
▁Ha	-8.45346
▁Ja	-8.45421
та	-8.45569
▁as	-8.45921
nd	-8.45935
▁co	-8.46788
ol	-8.46843
che	-8.47587
▁H	-8.4807
ч	-8.48138
▁kɛ	-8.48584
ul	-8.49033
▁kwa	-8.49143
▁Li	-8.49249
à	-8.49693
ter	-8.49957
om	-8.50225
▁An	-8.50285
san	-8.50289
…	-8.503
▁j	-8.50551
cu	-8.50691
ла	-8.50735
▁Le	-8.50762
▁Te	-8.50838
▁wan	-8.51022
ala	-8.51065
▁с	-8.51153
▁L	-8.51366
ad	-8.51377
▁w	-8.51467
ina	-8.516
م	-8.51876
▁vi	-8.52042
aj	-8.52458
qa	-8.52668
ut	-8.52753
nan	-8.52828
N	-8.52877
ll	-8.52949
▁shi	-8.5322
▁G	-8.53675
▁Me	-8.53721
sta	-8.5397
ны	-8.54435
▁Ne	-8.54554
ت	-8.54844
M	-8.5487
ल	-8.54899
ˬ	-8.55066
▁ak	-8.55369
▁pro	-8.55815
▁dia	-8.56266
fe	-8.56316
▁é	-8.56511
的	-8.5657
ts	-8.56743
́	-8.56858
त	-8.57141
▁om	-8.57268
▁z	-8.57337
س	-8.57449
▁।	-8.57573
з	-8.57687
men	-8.57806
ten	-8.57966
▁In	-8.58049
▁в	-8.58214
tha	-8.58321
▁x	-8.58456
ot	-8.58527
▁Ni	-8.58621
▁за	-8.58642
▁Mo	-8.58751
▁ru	-8.58895
га	-8.58924
shi	-8.59282
▁Mi	-8.59716
ing	-8.5987
▁Ku	-8.60017
ita	-8.60228
▁Ko	-8.60418
▁à	-8.6063
▁sha	-8.61002
▁Di	-8.61006
xi	-8.61132
ं	-8.61235
ын	-8.61446
ди	-8.61464
▁ah	-8.61828
em	-8.62198
fu	-8.62239
wu	-8.62569
han	-8.62979
▁¿	-8.63408
ل	-8.63619
ɛ	-8.63931
chu	-8.64326
C	-8.64455
я	-8.65241
▁Ya	-8.65276
ek	-8.65336
▁ny	-8.65416
▁ì	-8.65586
▁van	-8.65723
▁tau	-8.66076
▁आ	-8.66133
ndi	-8.66147
ма	-8.66315
。	-8.66743
ж	-8.66824
▁Mu	-8.66998
▁ay	-8.67072
▁mana	-8.67078
im	-8.67097
▁Ti	-8.67152
ñ	-8.67167
ndo	-8.67669
▁yang	-8.67776
ˇ	-8.67901
▁hu	-8.67981
vu	-8.68038
ला	-8.68407
ан	-8.68614
lar	-8.68724
▁um	-8.68883
tin	-8.68922
▁con	-8.69019
ŋ	-8.69164
mbo	-8.69177
Ù	-8.69495
ly	-8.69748
ка	-8.69898
▁kon	-8.70303
▁vo	-8.7052
▁lɛ	-8.70649
б	-8.70704
▁To	-8.70812
fo	-8.70824
▁im	-8.70932
tik	-8.71799
▁ɔ	-8.719
र	-8.71929
▁nge	-8.72032
▁Da	-8.72089
ን	-8.72153
▁pou	-8.72258
den	-8.73247
▁jun	-8.73452
T	-8.73608
▁die	-8.73747
▁wu	-8.73792
лар	-8.74048
qui	-8.74393
▁men	-8.74484
ste	-8.74499
uk	-8.74844
▁Ke	-8.75144
thu	-8.75503
ty	-8.7568
ý	-8.75726
▁chu	-8.75849
▁ndi	-8.76016
▁ngu	-8.76028
nge	-8.7607
D	-8.76272
ли	-8.76299
rin	-8.76317
▁tan	-8.76355
ver	-8.76923
▁Jesús	-8.77034
ĕ	-8.77108
▁por	-8.77175
са	-8.77397
▁Re	-8.7789
▁ani	-8.77987
nde	-8.781
ob	-8.78194
▁í	-8.78317
ban	-8.78405
ا	-8.7844
kin	-8.79033
ken	-8.79257
▁op	-8.79509
▁zi	-8.79545
B	-8.79677
K	-8.79855
▁sin	-8.79903
š	-8.80045
▁by	-8.80141
د	-8.80159
▁del	-8.80227
yan	-8.80353
nt	-8.80425
▁م	-8.80462
▁min	-8.80595
▁kai	-8.80876
▁ek	-8.81477
▁V	-8.82124
▁am	-8.82161
H	-8.82563
ɔ	-8.82591
¿½	-8.82732
▁xi	-8.82987
▁ana	-8.83378
▁il	-8.83555
▁ama	-8.83598
gh	-8.83694
▁á	-8.839
▁No	-8.83943
),	-8.83949
“	-8.84003
▁yn	-8.84074
▁mar	-8.84146
▁xa	-8.84598
ngo	-8.84976
म	-8.85018
ин	-8.85127
lik	-8.85461
▁Ki	-8.85595
▁ë	-8.85619
▁т	-8.85771
स	-8.85867
▁не	-8.86046
▁F	-8.86154
де	-8.86226
ра	-8.86291
pan	-8.86432
▁|	-8.86525
tt	-8.86557
(	-8.8679
ã	-8.87761
не	-8.87835
▁pre	-8.87918
но	-8.87939
▁hai	-8.88026
kwa	-8.88525
▁در	-8.88772
len	-8.88956
▁Yesu	-8.88993
ç	-8.89008
xa	-8.89273
±	-8.89398
tra	-8.8982
▁Su	-8.89823
▁sang	-8.89932
▁Be	-8.90138
ï	-8.90277
▁по	-8.90443
ara	-8.90571
que	-8.90897
ngi	-8.90935
dy	-8.90942
▁qui	-8.90947
▁aku	-8.91016
gen	-8.91101
ok	-8.91193
▁ب	-8.91377
der	-8.91456
dia	-8.91611
kon	-8.92411
sen	-8.92607
gan	-8.92613
au	-8.92685
ú	-8.92853
ndu	-8.93
▁Bu	-8.93026
U	-8.93292
Ma	-8.93385
▁ва	-8.93609
zu	-8.93693
▁ber	-8.94003
ej	-8.94053
%	-8.94246
ة	-8.94332
▁kuti	-8.94567
▁R	-8.94591
tar	-8.947
]	-8.94757
▁&	-8.948
▁f	-8.95111
▁han	-8.95213
sti	-8.95286
▁ọ	-8.95357
▁ala	-8.955
ти	-8.95557
mbu	-8.95626
§	-8.95645
nak	-8.95711
▁So	-8.95899
▁til	-8.95939
▁tak	-8.96241
▁lan	-8.96278
▁nail	-8.96279
‌	-8.96469
tak	-8.96536
▁Ra	-8.96884
P	-8.9704
▁ê	-8.97226
tta	-8.97552
ih	-8.97599
ama	-8.97792
▁ini	-8.97998
ab	-8.98171
ş	-8.98215
ी	-8.98266
▁ac	-8.98292
▁av	-8.98354
thi	-8.9837
▁ad	-8.98495
▁ban	-8.98662
iya	-8.98684
ä	-8.98775
▁ou	-8.98882
▁kar	-8.99056
ó	-8.99075
ش	-8.9937
▁He	-8.99372
ren	-8.99479
ler	-8.99765
▁bin	-9.00005
ton	-9.00012
▁J	-9.00076
▁Pe	-9.0017
▁се	-9.00231
ب	-9.00262
▁Ga	-9.00354
▁fe	-9.00594
▁ver	-9.00866
▁iya	-9.00917
ды	-9.01016
ning	-9.01028
̱	-9.0104
▁des	-9.01081
、	-9.01216
▁Jesus	-9.01221
▁अ	-9.01315
▁ty	-9.01452
▁ال	-9.01471
kha	-9.01519
ар	-9.02062
▁Y	-9.02074
+	-9.02179
▁iz	-9.02288
ı	-9.02617
▁А	-9.0267
▁ба	-9.02859
ay	-9.02899
▁oo	-9.02935
▁bɛ	-9.02954
▁Wa	-9.03002
ata	-9.03119
ry	-9.03121
min	-9.03172
▁Ci	-9.03199
▁kom	-9.03418
son	-9.03558
▁Je	-9.03597
▁fo	-9.03598
े	-9.03815
mar	-9.04038
ali	-9.04062
Na	-9.04254
ck	-9.04257
ria	-9.04352
▁W	-9.04725
▁har	-9.04951
▁od	-9.05186
▁С	-9.05364
_	-9.0549
ر	-9.05653
�	-9.05746
▁è	-9.05786
▁ce	-9.05853
те	-9.05857
nin	-9.06141
ча	-9.06431
▁nin	-9.06493
—	-9.06533
အ	-9.06567
сь	-9.06692
mbi	-9.06851
ña	-9.07016
▁hem	-9.0711
iti	-9.07222
ven	-9.07299
ˆ	-9.07468
▁Tu	-9.07784
▁ali	-9.07923
▁leh	-9.07945
▁Fa	-9.07989
ā	-9.0822
ым	-9.08294
ari	-9.08474
▁/	-9.08523
ment	-9.08541
the	-9.08812
▁Po	-9.0888
▁san	-9.08946
▁क	-9.09262
▁х	-9.09272
▁ɛ	-9.09298
▁з	-9.09389
ona	-9.09556
ри	-9.09563
मा	-9.09787
ም	-9.09945
kar	-9.10053
▁pan	-9.10083
▁Ri	-9.10254
ber	-9.10288
▁long	-9.1031
▁au	-9.10311
တ	-9.10325
ал	-9.1036
▁ei	-9.10432
ap	-9.1059
▁Lo	-9.10609
лы	-9.10748
ге	-9.11062
ud	-9.11077
ना	-9.11133
▁tra	-9.11169
ɣ	-9.11417
tsi	-9.11526
ৰ	-9.11596
sia	-9.11788
▁ben	-9.1203
▁में	-9.12055
▁ze	-9.12169
▁ena	-9.12199
या	-9.12216
ъ	-9.12321
▁les	-9.12329
▁ima	-9.12405
▁una	-9.12467
▁ua	-9.12543
ат	-9.12569
ন	-9.12803
▁Ar	-9.13034
nta	-9.13179
▁من	-9.13341
▁pri	-9.13664
▁Ye	-9.13666
ен	-9.13793
ag	-9.13828
▁can	-9.13847
▁atu	-9.13943
ک	-9.14045
ки	-9.14158
cho	-9.14266
ты	-9.1427
â	-9.143
ز	-9.14378
▁„	-9.14707
ле	-9.14823
ات	-9.14933
mbe	-9.14966
pas	-9.14989
ò	-9.14997
▁Bi	-9.15337
▁Al	-9.15572
nia	-9.1561
▁ⵏ	-9.15679
▁aba	-9.15754
▁Pi	-9.15769
▁En	-9.15864
▁Bo	-9.1605
ọ	-9.16158
▁ut	-9.16186
▁ir	-9.16296
▁tha	-9.16299
нь	-9.16346
ale	-9.1635
▁tsa	-9.16549
ite	-9.16614
ini	-9.16657
▁Israel	-9.167
▁nou	-9.16732
ва	-9.16756
за	-9.16763
▁cho	-9.16779
▁sk	-9.16885
▁wɔ	-9.16897
ngu	-9.17021
lɛ	-9.17193
র	-9.17216
kat	-9.17454
ani	-9.1747
▁Ho	-9.17486
oj	-9.17571
ক	-9.17822
▁it	-9.17944
tsa	-9.18369
nna	-9.18515
nen	-9.18542
nye	-9.18544
sin	-9.18581
ہ	-9.18638
က	-9.18737
▁der	-9.18899
व	-9.18974
▁ol	-9.19265
ले	-9.19399
ф	-9.19529
né	-9.1979
то	-9.19819
V	-9.19822
▁Ca	-9.19992
ü	-9.20025
▁zo	-9.20084
▁qa	-9.20231
ð	-9.20272
▁mas	-9.20286
▁[	-9.20298
tion	-9.20484
း	-9.20747
ст	-9.20756
ij	-9.20815
ach	-9.2086
▁ngo	-9.20934
▁به	-9.21291
wn	-9.21335
▁kun	-9.21343
ك	-9.21367
▁nya	-9.21475
▁س	-9.2168
ان	-9.21694
tal	-9.21741
▁К	-9.21892
▁të	-9.22021
lang	-9.22056
tur	-9.2219
▁...	-9.22242
té	-9.22268
kwe	-9.22375
▁pag	-9.22441
▁سنگ	-9.22483
ada	-9.22508
▁fan	-9.22552
W	-9.22813
isi	-9.22932
xe	-9.23051
▁dé	-9.231
▁thu	-9.23131
▁mba	-9.23178
ыр	-9.2324
▁ag	-9.23278
▁qu	-9.23284
?”	-9.23343
bil	-9.23526
▁Hi	-9.23624
tz	-9.23997
▁pai	-9.24045
‘	-9.24068
▁स	-9.24137
▁som	-9.24152
ю	-9.24187
་	-9.24193
▁uku	-9.24334
ere	-9.24404
ги	-9.24496
ben	-9.24513
य	-9.24653
L	-9.2466
ele	-9.24701
ong	-9.24719
का	-9.24822
▁ts	-9.25081
▁со	-9.25085
ν	-9.25313
ц	-9.25585
▁maka	-9.25592
▁о	-9.25619
▁до	-9.25876
▁din	-9.2592
▁bir	-9.25981
он	-9.26046
▁से	-9.26047
▁ت	-9.26104
▁var	-9.26195
ky	-9.2644
ine	-9.26444
ua	-9.26579
▁У	-9.26633
▁The	-9.26699
▁mag	-9.26745
Y	-9.26867
lin	-9.27037
▁г	-9.27076
ል	-9.27079
▁Nu	-9.27099
▁kha	-9.27126
▁ap	-9.27127
▁Jo	-9.27279
ic	-9.27466
tti	-9.27657
▁oku	-9.27685
ene	-9.27708
دا	-9.2804
ब	-9.28178
▁El	-9.28201
の	-9.28225
▁yɛ	-9.28502
ق	-9.29006
▁Z	-9.29048
ira	-9.29101
▁kam	-9.29111
res	-9.29139
▁та	-9.29191
▁es	-9.29233
van	-9.29287
▁бу	-9.29403
▁tin	-9.29497
▁ed	-9.29553
▁Do	-9.29576
▁са	-9.29652
дан	-9.29757
ĩ	-9.29865
ù	-9.29926
̣	-9.30172
lah	-9.30239
▁det	-9.30506
nte	-9.30524
lle	-9.30657
yon	-9.30825
aq	-9.30856
ха	-9.30878
▁nɛ	-9.30907
▁son	-9.31048
▁ки	-9.3122
era	-9.31223
▁ding	-9.3127
इ	-9.31393
ज	-9.31634
ት	-9.31634
▁я	-9.31772
eg	-9.31774
▁est	-9.31818
ть	-9.31864
kana	-9.31943
„	-9.32164
▁com	-9.32221
▁Du	-9.32222
▁त	-9.32314
▁th	-9.32399
ram	-9.32473
ता	-9.32508
▁Ro	-9.32748
nyi	-9.32773
ska	-9.32788
ski	-9.32834
°	-9.329
les	-9.32917
tel	-9.32987
ро	-9.3307
▁nun	-9.33093
bar	-9.33444
▁ç	-9.33532
▁naa	-9.33677
aba	-9.33742
▁Q	-9.33868
▁ada	-9.34038
▁في	-9.3406
ž	-9.34224
sto	-9.34346
▁О	-9.34364
kuna	-9.34416
bal	-9.34442
▁nɔ	-9.34512
▁де	-9.34643
ske	-9.34702
ane	-9.34832
री	-9.35168
▁pas	-9.35186
ну	-9.35236
ς	-9.35432
▁bann	-9.35529
▁apa	-9.35679
ল	-9.36
ɨ	-9.36019
ية	-9.36141
▁God	-9.36277
▁म	-9.36292
com	-9.36322
tho	-9.36592
tor	-9.3674
hon	-9.36787
tes	-9.36796
▁or	-9.36868
▁gue	-9.36888
▁#	-9.36975
▁او	-9.37018
F	-9.37442
▁aw	-9.37446
▁tal	-9.37472
ত	-9.37547
▁ken	-9.37584
лан	-9.37853
án	-9.37916
ñe	-9.38067
̀	-9.38079
▁sé	-9.38143
▁dat	-9.38214
kho	-9.38418
eu	-9.38427
▁bona	-9.38463
ela	-9.38485
rang	-9.38647
tongo	-9.38907
▁Ø	-9.38956
го	-9.39276
▁bar	-9.39362
▁aka	-9.39545
▁Co	-9.39856
▁iti	-9.39919
ise	-9.40009
gar	-9.4022
ssa	-9.40231
▁kwe	-9.40235
mana	-9.40236
▁em	-9.40264
ring	-9.40342
▁با	-9.40475
▁cun	-9.40555
▁कि	-9.40562
mal	-9.40614
ks	-9.407
▁Vi	-9.4074
aw	-9.40788
tre	-9.4082
ा	-9.40854
õ	-9.40891
▁Go	-9.40951
▁Hu	-9.41071
ns	-9.41142
ɑ	-9.41172
isa	-9.41349
aka	-9.41435
ай	-9.41446
▁е	-9.4149
۔	-9.41537
▁те	-9.41858
▁med	-9.41868
yen	-9.41884
پ	-9.42326
▁Lu	-9.42351
ig	-9.42441
▁ih	-9.42496
ron	-9.42531
ena	-9.4255
lai	-9.42619
ô	-9.42634
ने	-9.43111
dar	-9.4315
▁ati	-9.4315
▁kay	-9.43192
▁ex	-9.43242
▁met	-9.43309
ह	-9.43313
▁во	-9.43322
olo	-9.43521
च	-9.43563
ie	-9.43568
▁»	-9.43727
are	-9.43827
▁ese	-9.43876
▁ма	-9.43948
▁nak	-9.44063
ntu	-9.44342
▁q	-9.44349
tte	-9.44396
ون	-9.444
ys	-9.44415
lli	-9.44464
▁lai	-9.44645
pha	-9.44915
uli	-9.45143
▁И	-9.45236
Ka	-9.45371
ima	-9.4539
प	-9.45427
ः	-9.45442
taj	-9.45482
eb	-9.45578
▁का	-9.4562
bat	-9.45908
mp	-9.45919
nie	-9.46025
▁fer	-9.46132
▁бир	-9.46213
hua	-9.46225
▁Va	-9.46272
না	-9.46414
sy	-9.46475
чи	-9.46527
ser	-9.4655
▁gin	-9.46559
▁sing	-9.46569
she	-9.46752
–	-9.46798
nar	-9.46938
ң	-9.47011
pen	-9.47016
ker	-9.47106
,”	-9.47171
си	-9.4725
kai	-9.47325
ку	-9.47458
▁kana	-9.47458
▁dem	-9.47653
▁vha	-9.47668
ба	-9.47731
op	-9.47742
▁på	-9.47794
द	-9.47803
ré	-9.47871
ger	-9.479
nja	-9.48103
▁dhe	-9.48172
ር	-9.48233
."	-9.48286
▁ene	-9.48373
▁pen	-9.48416
ف	-9.48439
aga	-9.48537
ant	-9.48591
per	-9.48614
yn	-9.48621
မ	-9.48661
▁tla	-9.48734
kun	-9.48759
ম	-9.4895
▁पर	-9.49253
ide	-9.49339
▁zu	-9.49625
▁ह	-9.49668
dzi	-9.49669
रा	-9.49742
▁mea	-9.49831
▁п	-9.49836
▁Za	-9.49855
▁Т	-9.49901
▁ser	-9.49972
ން	-9.49979
rum	-9.49999
▁té	-9.50048
▁nye	-9.50222
▁taa	-9.50333
▁ee	-9.50333
им	-9.50395
ов	-9.504
ې	-9.50469
▁အ	-9.50548
▁Mar	-9.50638
rt	-9.50687
▁yan	-9.50804
тар	-9.50861
是	-9.50886
个	-9.50921
▁ה	-9.50968
▁sy	-9.50993
▁xe	-9.5111
syon	-9.51132
▁tama	-9.51196
ئ	-9.51539
ura	-9.51541
дар	-9.51692
▁ن	-9.51781
▁unu	-9.51967
rat	-9.52294
▁kara	-9.52297
ի	-9.52326
се	-9.52336
▁ẹ	-9.5236
kɛ	-9.52495
una	-9.52504
от	-9.52572
को	-9.5261
mat	-9.52623
J	-9.52629
ट	-9.5267
▁Yesus	-9.52706
hla	-9.52706
ган	-9.52713
ati	-9.52742
”.	-9.5278
гъа	-9.52808
qu	-9.52835
ttu	-9.52961
mas	-9.52974
ме	-9.53026
▁sam	-9.53117
ee	-9.53324
ei	-9.53554
ем	-9.53674
ى	-9.53807
▁ц	-9.5384
ና	-9.53928
▁amo	-9.54009
ун	-9.54013
▁aur	-9.5407
od	-9.54174
▁Ju	-9.54187
▁sta	-9.54237
og	-9.54294
ano	-9.54332
nn	-9.54405
ida	-9.54422
\	-9.5449
خ	-9.54607
▁mata	-9.54692
▁nang	-9.54802
ile	-9.54827
wen	-9.54842
ting	-9.54853
lé	-9.54984
သ	-9.54995
mpi	-9.55116
lwa	-9.55252
ع	-9.55286
▁हो	-9.55467
dh	-9.55589
ling	-9.55615
ris	-9.55671
▁nag	-9.5569
ул	-9.55743
lam	-9.56024
▁you	-9.56068
nyo	-9.56103
io	-9.56136
▁X	-9.56149
pis	-9.56238
ର	-9.56246
win	-9.56318
ix	-9.56356
ire	-9.56496
▁په	-9.56822
▁tar	-9.57006
lem	-9.57045
▁از	-9.5708
†	-9.57103
ké	-9.57107
नी	-9.57327
▁ا	-9.57356
¯	-9.57446
ስ	-9.57502
ac	-9.57542
▁д	-9.5756
▁Biblia	-9.57624
ग	-9.57655
ರ	-9.57691
mwe	-9.57737
зи	-9.57759
eh	-9.57764
▁mun	-9.57784
ло	-9.57859
▁naj	-9.57962
сы	-9.58081
´	-9.581
rai	-9.58119
▁*	-9.58187
²	-9.58373
nik	-9.58626
▁ter	-9.58654
ပ	-9.58755
▁taki	-9.58776
ев	-9.58835
▁dai	-9.58867
̃	-9.58941
▁ч	-9.58942
ngan	-9.59081
▁pra	-9.59145
tis	-9.59198
▁но	-9.5932
▁blong	-9.59405
ال	-9.59408
▁eo	-9.5946
î	-9.59528
pat	-9.59577
ам	-9.59591
▁کے	-9.59651
▁tshi	-9.59676
ша	-9.59836
ми	-9.59968
mer	-9.60092
▁ב	-9.60106
ue	-9.60208
▁Ge	-9.60214
tas	-9.60286
by	-9.60388
▁faka	-9.60434
▁don	-9.60439
`	-9.60507
▁mpo	-9.60542
ड	-9.60621
▁kä	-9.60627
▁،	-9.60654
apos	-9.60707
kh	-9.60759
ili	-9.60854
û	-9.60858
dir	-9.60902
ui	-9.60975
▁ол	-9.60991
nji	-9.61138
▁ل	-9.6117
▁sama	-9.61176
▁kin	-9.61267
▁ara	-9.61339
gun	-9.61374
can	-9.61429
ج	-9.61526
▁af	-9.61534
kka	-9.61638
ε	-9.61714
▁प	-9.61756
ә	-9.61784
jan	-9.61942
▁lam	-9.62116
▁پ	-9.62144
rá	-9.62234
▁Yo	-9.62261
▁agus	-9.62369
лер	-9.62391
cia	-9.62408
▁nee	-9.62543
mak	-9.62547
dha	-9.62557
▁tur	-9.6258
▁asa	-9.62585
人	-9.6265
▁الم	-9.6266
▁tse	-9.62663
▁ك	-9.62993
▁Gu	-9.63188
зы	-9.6319
ore	-9.6325
▁جي	-9.63359
ა	-9.63389
С	-9.63397
▁то	-9.63474
▁му	-9.63478
▁kum	-9.63485
sar	-9.63487
лу	-9.63559
ē	-9.63589
बा	-9.63654
ն	-9.63694
▁Yu	-9.63772
▁Ru	-9.63856
▁kita	-9.63862
эр	-9.63943
œ	-9.63977
ер	-9.64053
ila	-9.64172
ib	-9.64201
▁і	-9.64235
▁Chi	-9.64367
▁uma	-9.64431
▁，	-9.64448
dhi	-9.64555
war	-9.64683
ور	-9.64689
▁Gi	-9.64716
мо	-9.64724
щ	-9.64728
sion	-9.64765
par	-9.64787
эм	-9.64863
▁б	-9.64988
asi	-9.65006
mm	-9.65073
▁het	-9.65074
Ba	-9.65134
▁Per	-9.65243
ug	-9.65324
iz	-9.65343
ika	-9.65386
nam	-9.65407
las	-9.65428
▁wali	-9.65456
▁fɔ	-9.65461
uma	-9.65483
run	-9.6565
▁Pro	-9.65697
aa	-9.65698
▁mwa	-9.65739
ster	-9.65752
वा	-9.65755
▁کی	-9.65769
.—	-9.659
ين	-9.65953
▁shu	-9.65976
nne	-9.66017
ner	-9.66034
ند	-9.66152
ದ	-9.66256
▁mɛ	-9.66485
pon	-9.66506
▁uh	-9.66595
ax	-9.66626
nti	-9.66626
ál	-9.66753
iki	-9.66778
ción	-9.66814
val	-9.66835
tse	-9.66964
▁her	-9.66993
lum	-9.67015
ے	-9.67129
▁от	-9.67214
R	-9.67342
lay	-9.67372
къ	-9.67386
ру	-9.67483
oku	-9.67499
▁बा	-9.675
mai	-9.6753
▁ку	-9.67609
ব	-9.67661
▁व	-9.67795
ate	-9.67839
eng	-9.67898
چ	-9.67932
·	-9.68033
ż	-9.68116
nis	-9.68309
ली	-9.68394
ман	-9.6842
▁ब	-9.68473
ō	-9.68504
▁jing	-9.68555
▁eta	-9.68685
des	-9.68696
▁non	-9.68701
▁бар	-9.68818
X	-9.68866
▁tam	-9.68963
▁kaj	-9.69157
ко	-9.69216
llu	-9.69309
anga	-9.69315
ũ	-9.69317
▁lé	-9.6934
▁lun	-9.69403
▁न	-9.69431
▁may	-9.69627
ста	-9.69641
ор	-9.69653
▁az	-9.69658
▁П	-9.69764
ula	-9.69768
vel	-9.69789
ł	-9.69837
kara	-9.69885
kala	-9.69951
дин	-9.70063
mon	-9.70076
▁उ	-9.70165
▁जा	-9.70262
一	-9.70344
oni	-9.70435
▁од	-9.70469
ण	-9.70617
▁nei	-9.70619
А	-9.71009
àn	-9.71179
▁የ	-9.71189
ẹ	-9.71265
че	-9.71339
▁hin	-9.71382
▁ari	-9.71469
one	-9.71523
lak	-9.71561
▁Х	-9.71564
▁ata	-9.71593
ರ್	-9.71639
uri	-9.71743
ddi	-9.71976
ғ	-9.7201
tos	-9.72037
ה	-9.72045
ša	-9.72073
▁Jehová	-9.7208
ј	-9.72108
Ta	-9.72161
ↄ	-9.72279
эн	-9.72307
din	-9.72386
▁aj	-9.72417
年	-9.7246
ها	-9.72464
var	-9.72507
yin	-9.72596
▁די	-9.72621
▁bon	-9.72643
▁are	-9.72723
nes	-9.72733
▁xu	-9.72759
sse	-9.72766
dang	-9.72806
č	-9.72832
dza	-9.72941
▁As	-9.72947
▁شکن	-9.7297
ست	-9.73063
ní	-9.73102
▁dee	-9.73177
чу	-9.73195
dda	-9.73196
ил	-9.73212
pai	-9.7327
ရ	-9.73463
▁را	-9.73527
ການ	-9.73532
▁В	-9.73539
▁lau	-9.73658
ο	-9.73719
▁David	-9.73839
▁mei	-9.73862
▁Pu	-9.73874
▁umu	-9.73896
▁Г	-9.73906
bel	-9.73951
ich	-9.73971
▁maa	-9.74052
ыс	-9.74166
▁los	-9.74207
▁ف	-9.7425
▁tre	-9.74279
asa	-9.74279
ld	-9.74302
‑	-9.74309
▁në	-9.74389
av	-9.74399
▁û	-9.74471
▁لە	-9.74489
ou	-9.74565
▁bia	-9.74606
▁dy	-9.7461
ні	-9.74695
ир	-9.74721
ს	-9.74788
▁پر	-9.7481
▁war	-9.74855
θ	-9.74866
sak	-9.74957
don	-9.74959
▁Bible	-9.75047
ble	-9.75053
▁М	-9.75076
tic	-9.75085
▁ме	-9.75102
▁itu	-9.75172
³	-9.75229
▁Ji	-9.75229
manta	-9.75319
▁las	-9.75474
ete	-9.75488
▁•	-9.75505
▁Ch	-9.75509
▁ot	-9.75748
▁dong	-9.75875
▁oli	-9.75924
▁pun	-9.75965
ą	-9.76098
▁Yehowa	-9.76127
manda	-9.76155
▁Is	-9.76155
이	-9.76182
ই	-9.76224
sk	-9.76296
xo	-9.76301
ft	-9.76334
▁iha	-9.76342
ад	-9.76441
”,	-9.76475
▁qi	-9.76502
▁eb	-9.76542
ँ	-9.76551
anna	-9.76564
▁bad	-9.76598
tang	-9.76642
ი	-9.76693
llo	-9.76698
zh	-9.76757
lis	-9.76758
▁ха	-9.76913
有	-9.76936
▁vaka	-9.76943
aya	-9.77053
▁Jehova	-9.77143
▁anu	-9.77148
α	-9.7718
mes	-9.77198
▁Nga	-9.772
▁mon	-9.7726
▁про	-9.77309
▁бо	-9.77312
▁می	-9.77435
bha	-9.77452
▁ren	-9.77475
lama	-9.77533
Q	-9.77547
▁vu	-9.77578
*	-9.7761
ген	-9.77611
ras	-9.77667
့	-9.77754
▁amin	-9.77877
▁из	-9.77883
▁dari	-9.77925
نا	-9.77984
ия	-9.77996
nje	-9.78005
Pa	-9.78031
lia	-9.78099
▁was	-9.78138
▁my	-9.78198
▁mala	-9.78204
ында	-9.7823
▁id	-9.78246
▁Isa	-9.78256
▁Wi	-9.78318
rak	-9.78321
▁aa	-9.78374
ම	-9.78467
bra	-9.78494
nom	-9.78592
hin	-9.78608
▁We	-9.78648
cy	-9.78754
▁era	-9.78795
kal	-9.78801
tam	-9.78833
▁pour	-9.78939
wer	-9.78948
rd	-9.78956
▁pod	-9.78984
ᑦ	-9.78992
jen	-9.7907
maa	-9.79135
▁apo	-9.79175
sel	-9.79191
mos	-9.79208
ው	-9.79252
ып	-9.79259
mata	-9.79294
ে	-9.79316
▁ná	-9.7932
▁است	-9.79364
pin	-9.79482
▁bé	-9.79517
rü	-9.79555
jar	-9.79589
▁ф	-9.79627
ре	-9.7981
▁Б	-9.79829
▁dal	-9.79842
▁ج	-9.80092
▁Jesu	-9.80143
ᓂ	-9.80199
▁kuma	-9.80229
či	-9.80239
▁ea	-9.8024
▁gen	-9.80304
!”	-9.80357
▁мо	-9.80371
▁nda	-9.80375
▁San	-9.80394
▁nde	-9.80433
ට	-9.80445
dd	-9.8049
imi	-9.80493
ви	-9.80545
र्	-9.80548
বা	-9.80641
ạ	-9.80689
▁па	-9.80726
▁nia	-9.80823
ке	-9.80837
stu	-9.80839
ту	-9.80869
▁מ	-9.81054
рт	-9.81102
.+	-9.81157
▁که	-9.81199
ति	-9.81215
rã	-9.81262
•	-9.81268
▁nā	-9.81285
ح	-9.81296
▁ñi	-9.81448
xu	-9.81499
nder	-9.81539
eri	-9.81541
▁manga	-9.81551
▁tou	-9.81571
land	-9.81616
å	-9.81617
▁།	-9.81626
up	-9.81631
jel	-9.81645
ನ	-9.81713
ii	-9.81717
▁Wo	-9.81739
▁Man	-9.81764
▁och	-9.81776
▁fai	-9.81805
▁baa	-9.81821
▁bhai	-9.81876
ै	-9.81898
▁mat	-9.82117
▁kau	-9.82141
नि	-9.82181
ҥ	-9.82182
▁awọn	-9.82211
▁bara	-9.82227
▁Yehova	-9.82269
̈	-9.82306
▁дар	-9.82314
▁een	-9.82321
mun	-9.82364
ድ	-9.82375
ẽ	-9.82412
ola	-9.82504
▁sara	-9.82545
से	-9.82548
▁су	-9.82552
▁آ	-9.82554
▁प्र	-9.82568
лик	-9.8263
kam	-9.82631
▁ту	-9.8265
ры	-9.82657
▁და	-9.82701
ši	-9.82778
sam	-9.82787
▁muna	-9.82812
Sa	-9.82878
hat	-9.83207
ль	-9.83208
▁aga	-9.83333
▁sem	-9.83364
ná	-9.83398
▁أ	-9.83427
▁καὶ	-9.83437
kt	-9.83455
met	-9.8348
▁tun	-9.83498
yang	-9.83553
ယ	-9.83579
تا	-9.8361
▁iki	-9.83631
▁ita	-9.83648
ers	-9.83662
ov	-9.83709
dde	-9.83733
▁dha	-9.83747
би	-9.83755
nas	-9.83777
▁iyo	-9.83907
ە	-9.84023
uh	-9.84044
ī	-9.84079
¨	-9.84103
▁éí	-9.84125
▁कर	-9.84133
тан	-9.84143
▁ک	-9.84149
ය	-9.84172
до	-9.84207
▁zot	-9.84272
▁ako	-9.84378
▁ар	-9.84407
һ	-9.84534
▁Jehovah	-9.8455
ulu	-9.84557
▁ду	-9.84605
ға	-9.84626
▁sar	-9.84735
М	-9.8476
▁sur	-9.84768
tro	-9.84809
yɛ	-9.84848
ରେ	-9.84859
ū	-9.84863
ом	-9.84869
ይ	-9.84894
▁kala	-9.84915
غ	-9.85026
▁ngan	-9.85033
ប	-9.85037
bin	-9.85081
▁Ve	-9.85129
▁mɔ	-9.85185
ብ	-9.85189
श	-9.85255
ول	-9.85315
के	-9.8539
ン	-9.85482
ля	-9.85494
▁एक	-9.85523
▁Fi	-9.85526
das	-9.85534
▁جو	-9.8557
uj	-9.85628
▁emi	-9.85748
».	-9.85755
ў	-9.85823
▁অ	-9.85851
ole	-9.85938
گ	-9.85976
▁und	-9.85979
▁os	-9.86008
▁kho	-9.86087
▁при	-9.86093
чы	-9.86096
▁vy	-9.86125
ende	-9.86162
ding	-9.86163
leng	-9.86164
▁oh	-9.86194
▁मा	-9.86215
▁nie	-9.86252
ff	-9.86255
ຍ	-9.86274
▁Size	-9.86292
sis	-9.86305
ет	-9.86342
ung	-9.86361
▁Cristo	-9.86433
és	-9.86438
▁mara	-9.86456
▁ви	-9.86494
hen	-9.86497
гу	-9.86497
gin	-9.8651
▁oni	-9.86512
လ	-9.86559
tir	-9.86575
▁tr	-9.86577
▁ora	-9.86587
ʋ	-9.86593
▁Ù	-9.86642
ן	-9.86688
▁anak	-9.86794
▁asi	-9.86845
▁वि	-9.86965
ыл	-9.8698
af	-9.87002
▁mé	-9.87009
ɛn	-9.87069
▁mama	-9.87188
".	-9.87255
ӧ	-9.87295
▁ob	-9.87328
γ	-9.87335
▁ал	-9.87412
▁jan	-9.87423
▁ane	-9.87447
tso	-9.87455
▁sɛ	-9.87495
▁kaba	-9.87508
ə	-9.87534
▁dengan	-9.87644
pp	-9.87658
zan	-9.87685
ito	-9.87697
же	-9.87714
▁þe	-9.87776
nto	-9.87787
ین	-9.87801
atu	-9.87836
mit	-9.87847
usi	-9.87856
▁ज	-9.87962
▁Un	-9.88015
▁dɛn	-9.88062
सा	-9.88135
▁bisa	-9.88236
▁thi	-9.88258
wal	-9.88268
▁oko	-9.88286
▁khi	-9.883
К	-9.8837
ше	-9.88519
хь	-9.88614
kom	-9.88646
▁dis	-9.88668
wé	-9.8869
▁ten	-9.88721
▁ale	-9.88722
sun	-9.88786
idi	-9.88837
▁matters	-9.88904
cht	-9.88928
Z	-9.8893
sang	-9.88958
wana	-9.89032
nce	-9.89062
ня	-9.89081
vin	-9.89095
：	-9.89109
num	-9.89127
stra	-9.8918
fer	-9.8922
▁að	-9.8925
ų	-9.89254
lt	-9.8926
▁tho	-9.89262
▁ما	-9.89282
▁bang	-9.89288
ం	-9.89449
из	-9.89464
aki	-9.89474
ń	-9.89509
▁chay	-9.89673
lá	-9.89676
ಂ	-9.89692
az	-9.89726
▁ug	-9.89772
▁sia	-9.89831
ev	-9.89935
ssi	-9.89945
▁دا	-9.90006
▁Ang	-9.9001
ese	-9.90016
қ	-9.90028
fan	-9.90053
▁waka	-9.90115
▁kal	-9.90185
lat	-9.90224
▁edi	-9.90224
လၢ	-9.90255
Me	-9.90326
ako	-9.90365
▁Д	-9.90367
▁lao	-9.90382
ның	-9.90414
est	-9.90446
gua	-9.90454
▁ش	-9.90494
rra	-9.90719
▁dalam	-9.90736
▁air	-9.90754
SS	-9.90767
दा	-9.90778
ava	-9.90849
ду	-9.90882
▁wà	-9.90883
jin	-9.90897
dam	-9.90903
lim	-9.90918
▁sai	-9.91107
tura	-9.91144
▁sok	-9.91181
▁ع	-9.91194
ो	-9.913
▁bɔ	-9.91331
▁laj	-9.91401
▁xo	-9.91419
▁ম	-9.91494
ގެ	-9.91539
▁oj	-9.91543
大	-9.91544
▁wen	-9.91621
▁На	-9.91642
iri	-9.91657
ex	-9.9166
Ne	-9.91664
ав	-9.91679
σ	-9.91721
tun	-9.91722
ите	-9.9181
хэм	-9.91821
lon	-9.91836
ܢ	-9.91876
nim	-9.91894
▁idia	-9.91898
▁ebe	-9.91967
བ	-9.91983
ца	-9.91988
иш	-9.92027
dos	-9.92043
န	-9.92064
▁mit	-9.92065
▁ಅ	-9.92075
ਰ	-9.92085
▁ab	-9.921
nek	-9.92136
▁ok	-9.92147
▁mak	-9.92237
▁baka	-9.92306
bang	-9.92377
▁ɨ	-9.92385
▁Allah	-9.92408
▁ngi	-9.92457
ий	-9.92465
tum	-9.92505
▁ina	-9.92514
khu	-9.92525
ыш	-9.92558
рэ	-9.92568
▁waa	-9.92577
▁ila	-9.92663
iga	-9.92677
▁pada	-9.92695
let	-9.92733
▁Cu	-9.92759
sho	-9.9279
жа	-9.92849
ур	-9.92932
pala	-9.93029
▁ל	-9.93043
lei	-9.93142
सी	-9.93174
ِ	-9.93304
▁sto	-9.93318
ß	-9.93339
▁orang	-9.93351
gal	-9.93407
PS	-9.93516
▁бол	-9.93564
▁تا	-9.9371
La	-9.93724
▁nọ	-9.93765
ವ	-9.93767
sé	-9.93778
ما	-9.93791
эу	-9.93823
▁ing	-9.93983
ታ	-9.94055
▁lang	-9.94083
тер	-9.94141
▁ona	-9.94182
cion	-9.94209
▁dua	-9.94213
在	-9.94264
ख	-9.94348
ং	-9.94493
▁car	-9.94506
▁को	-9.94526
وں	-9.9454
▁toy	-9.94555
uni	-9.94574
los	-9.94588
▁بە	-9.94611
ນ	-9.94628
▁м	-9.94682
кс	-9.94694
ⵜ	-9.94722
uka	-9.94733
▁hpe	-9.94791
DC	-9.94824
ị	-9.94837
»,	-9.94876
ос	-9.94933
▁tä	-9.94984
del	-9.95014
phe	-9.95027
φ	-9.9506
ⵏ	-9.9509
‡	-9.95189
ለ	-9.95219
▁dah	-9.95326
▁kei	-9.95344
шы	-9.95388
tay	-9.95481
थ	-9.95522
▁xin	-9.9554
▁भ	-9.95579
kor	-9.95628
▁tro	-9.9567
ӣ	-9.95683
▁nyan	-9.95704
ilo	-9.95756
ری	-9.95763
nai	-9.9577
tus	-9.95891
▁Il	-9.95908
ം	-9.95919
▁नि	-9.95947
▁کو	-9.9601
▁ве	-9.96018
▁Ala	-9.96098
을	-9.96157
▁wei	-9.96177
mma	-9.96287
▁ша	-9.96317
rik	-9.9646
น	-9.96478
न्	-9.96507
▁ग	-9.96542
tua	-9.96575
▁Cha	-9.96596
ते	-9.96714
။	-9.9674
ɛɛ	-9.96823
▁ame	-9.96968
ori	-9.96972
▁इ	-9.96987
▁ⵜ	-9.97012
▁isi	-9.97081
vis	-9.97191
ef	-9.97231
▁Con	-9.97247
khe	-9.97532
▁cov	-9.97613
mis	-9.97682
▁sou	-9.97722
аш	-9.97735
lig	-9.97795
kel	-9.97802
▁ein	-9.97804
oo	-9.9789
▁mau	-9.9789
ꞈ	-9.97903
▁masa	-9.97919
ام	-9.97936
ಯ	-9.98033
▁pat	-9.98126
▁Jisas	-9.98153
وا	-9.98158
itu	-9.98164
mane	-9.98239
▁bʌ	-9.98244
ស	-9.98364
▁bha	-9.98383
▁nih	-9.98473
▁gui	-9.98589
▁hal	-9.98592
▁ó	-9.98604
taa	-9.9865
▁huan	-9.9865
ү	-9.98667
Mi	-9.98668
SD	-9.9867
nni	-9.98693
▁tü	-9.98805
প	-9.98809
dor	-9.9881
ụ	-9.98833
ि	-9.98892
▁sum	-9.98945
의	-9.98981
▁къа	-9.99011
tek	-9.99054
cua	-9.99077
nza	-9.99096
mɛ	-9.991
▁rau	-9.99102
▁ди	-9.99126
tri	-9.9918
▁bala	-9.99289
▁mate	-9.9938
▁Pablo	-9.99401
▁mal	-9.99407
▁soo	-9.9947
▁چ	-9.99533
गु	-9.99547
utu	-9.9955
yaa	-9.99592
▁yon	-9.99621
গী	-9.9967
▁की	-9.99726
://	-9.99779
▁nyang	-9.99801
vé	-9.99817
ራ	-9.99881
▁tri	-9.99887
▁eng	-9.99987
▁ў	-10.0003
mb	-10.0008
ас	-10.001
▁Sign	-10.0014
▁है	-10.0014
ը	-10.0023
ན་	-10.0024
▁abi	-10.0026
kil	-10.0038
rí	-10.004
▁دی	-10.0045
▁sink	-10.0046
▁በ	-10.0048
bre	-10.0052
▁akan	-10.0054
▁mɔɔ	-10.0056
ಕ್	-10.0057
ах	-10.0058
▁መ	-10.006
ngin	-10.0064
amu	-10.0067
▁$	-10.0077
kata	-10.0078
ppa	-10.0079
▁kwi	-10.0089
▁میں	-10.009
▁ин	-10.01
▁hun	-10.0105
мы	-10.0107
gas	-10.0109
मे	-10.011
mɔ	-10.0117
に	-10.0119
ň	-10.0121
▁Ama	-10.0122
▁pung	-10.0122
лары	-10.0123
▁аз	-10.0126
ure	-10.0128
▁Par	-10.0128
▁bak	-10.0128
pri	-10.0132
▁jin	-10.014
▁wat	-10.0141
ती	-10.0142
Т	-10.0156
▁kat	-10.0159
▁gore	-10.0168
▁kh	-10.0169
▁бер	-10.0175
gü	-10.0179
▁ка	-10.018
org	-10.0181
።	-10.0181
tá	-10.0182
▁ق	-10.0183
▁Language	-10.0186
aⁿ	-10.0187
▁tɨ	-10.0195
ס	-10.0196
zy	-10.0198
ên	-10.02
ami	-10.02
▁bua	-10.0205
ike	-10.021
▁with	-10.0212
ม	-10.0213
ή	-10.0227
▁kā	-10.0233
▁mang	-10.0235
kke	-10.0238
▁mah	-10.0243
ân	-10.0244
тыр	-10.0246
waa	-10.0246
|	-10.026
mah	-10.0266
ent	-10.0272
tie	-10.0272
▁шу	-10.0273
▁nyi	-10.028
ё	-10.0281
▁wie	-10.0282
▁ami	-10.0282
▁Э	-10.0285
▁ika	-10.0287
ර	-10.0288
▁sun	-10.0296
▁mein	-10.0299
lh	-10.0312
во	-10.032
▁Comam	-10.0322
ón	-10.0329
▁द	-10.0334
pun	-10.0337
uta	-10.0341
ngen	-10.0344
iko	-10.0349
ham	-10.0351
yar	-10.0351
tai	-10.036
▁ili	-10.0365
▁bay	-10.0368
▁च	-10.0369
ит	-10.0375
▁sak	-10.0379
།	-10.0381
▁bidi	-10.0382
نی	-10.0386
ನ್	-10.0395
▁iba	-10.0395
rar	-10.0398
ez	-10.04
jja	-10.04
ey	-10.0401
▁Ма	-10.0402
tia	-10.0403
ส	-10.0403
▁би	-10.0405
ਨ	-10.0422
▁cy	-10.0422
apa	-10.0424
▁yé	-10.0425
ર	-10.0425
▁আ	-10.0428
Д	-10.0428
▁sub	-10.0431
▁‵	-10.0431
▁për	-10.0431
▁Та	-10.0437
ngga	-10.0442
▁eh	-10.0442
▁naka	-10.0444
rs	-10.0445
kulu	-10.0448
˜	-10.0449
rit	-10.0455
со	-10.0456
म्	-10.0464
pre	-10.0474
▁dzi	-10.0475
mpo	-10.0476
▁nem	-10.0477
مان	-10.048
dik	-10.0486
τ	-10.0491
ー	-10.0497
net	-10.0501
▁hua	-10.0501
©	-10.0502
▁και	-10.0502
py	-10.0504
uru	-10.051
▁اس	-10.0512
ран	-10.0512
gue	-10.0512
ino	-10.0516
sya	-10.052
ño	-10.0521
gon	-10.0521
long	-10.0529
▁ira	-10.0532
اد	-10.0539
dra	-10.054
▁fun	-10.054
mpa	-10.0542
iza	-10.0546
аг	-10.0554
лай	-10.0556
▁bhi	-10.0562
dé	-10.0562
ян	-10.0563
eni	-10.0565
▁zhi	-10.0567
▁ham	-10.057
▁је	-10.057
▁ⴷ	-10.0577
တၢ်	-10.0591
▁ur	-10.0597
ம்	-10.0597
мен	-10.06
▁ح	-10.0603
ω	-10.0606
मी	-10.0607
hy	-10.0614
ip	-10.0614
idh	-10.0615
▁છે	-10.0617
ᖅ	-10.0623
ρ	-10.0623
▁mam	-10.0634
ດ	-10.0636
hal	-10.0645
تی	-10.0647
▁Kon	-10.0648
In	-10.065
ub	-10.0662
nzi	-10.0666
لا	-10.0666
了	-10.0667
ܡ	-10.0677
də	-10.0678
រ	-10.068
mani	-10.0681
▁Es	-10.0681
Ha	-10.0682
▁>	-10.0682
ʌ	-10.0684
ɔn	-10.0685
lie	-10.0691
▁ته	-10.0691
▁kia	-10.0692
hana	-10.0693
BS	-10.0693
▁ад	-10.0695
mā	-10.0695
па	-10.0696
€	-10.0708
▁mer	-10.0709
ол	-10.0709
▁saa	-10.0716
▁aki	-10.0725
pro	-10.0727
▁anga	-10.0728
‍	-10.0729
▁ton	-10.0732
ג	-10.0734
▁ie	-10.0735
▁بر	-10.0735
gbe	-10.074
ू	-10.0742
▁hag	-10.0746
▁usa	-10.0747
иб	-10.0747
",	-10.0748
یا	-10.0755
ket	-10.0757
ret	-10.0761
лык	-10.0773
ел	-10.0777
▁nke	-10.0781
jj	-10.0782
non	-10.0789
tla	-10.0795
▁Ak	-10.0799
ына	-10.0799
▁kev	-10.0802
gra	-10.0807
tok	-10.0808
зе	-10.0809
ray	-10.0814
▁fon	-10.0815
၊	-10.0816
▁Er	-10.0827
▁gra	-10.0828
еш	-10.0831
ꞌa	-10.0832
iq	-10.0834
▁է	-10.0839
ipa	-10.0839
▁dei	-10.084
ន	-10.0841
▁that	-10.0844
nih	-10.0845
▁Dia	-10.0847
▁این	-10.0849
不	-10.0862
igi	-10.0865
▁anda	-10.0866
▁اور	-10.0869
ար	-10.0875
▁kag	-10.0882
ལ་	-10.0884
tter	-10.0887
sai	-10.0889
ente	-10.089
rus	-10.0891
▁ש	-10.0892
hn	-10.0892
ක	-10.0893
▁å	-10.0895
¡	-10.0897
▁ي	-10.0897
中	-10.0904
gala	-10.0914
▁kasa	-10.0915
দা	-10.0921
Р	-10.093
▁Fe	-10.0931
▁us	-10.0934
▁Juan	-10.0935
stan	-10.0938
▁hana	-10.0945
　	-10.0947
य्	-10.095
ಸ್	-10.095
taka	-10.0953
▁oi	-10.0955
▁mach	-10.0961
bet	-10.0962
¸	-10.0963
ана	-10.0964
▁É	-10.0969
uu	-10.0973
½	-10.0976
▁пу	-10.0984
▁ŋ	-10.0984
ʉ	-10.0984
ɩ	-10.099
n̄	-10.0991
gg	-10.0992
▁ewe	-10.0995
mpe	-10.0998
ສ	-10.0999
ова	-10.0999
▁جا	-10.1
µ	-10.1003
▁dë	-10.1004
kali	-10.1006
ល	-10.1007
ish	-10.1008
tà	-10.1011
ያ	-10.1012
▁yoo	-10.1016
▁ida	-10.1017
ап	-10.1017
▁ring	-10.1017
▁ono	-10.102
▁nam	-10.102
shan	-10.1021
alu	-10.1023
ကို	-10.1024
▁हे	-10.1026
nɛ	-10.1037
▁Kan	-10.1037
Ja	-10.1037
λ	-10.104
му	-10.1046
ew	-10.1055
зэ	-10.1066
zen	-10.1069
▁تو	-10.107
ži	-10.1072
chen	-10.1072
▁hui	-10.1084
ກ	-10.1092
sal	-10.1092
▁ngaol	-10.1094
▁maj	-10.1094
lek	-10.1094
[	-10.1099
ono	-10.1101
তে	-10.1105
ist	-10.1108
ಲ	-10.111
ци	-10.111
▁sira	-10.1113
ነ	-10.1115
ć	-10.112
sing	-10.1122
нд	-10.1123
▁nna	-10.1123
eke	-10.1124
ак	-10.1126
ව	-10.1128
ę	-10.113
sor	-10.1132
লে	-10.1133
▁sie	-10.1136
▁vai	-10.1138
dre	-10.1145
ላ	-10.1146
Te	-10.1148
▁ña	-10.1149
▁qo	-10.1153
▁she	-10.1162
chan	-10.1171
▁pla	-10.1172
는	-10.1172
चा	-10.1173
bri	-10.1177
▁nti	-10.1178
▁tlen	-10.1179
▁kaa	-10.1181
دى	-10.119
▁sho	-10.119
ym	-10.1191
ά	-10.1193
хэр	-10.1198
ڤ	-10.1199
▁ئا	-10.1201
kk	-10.1204
ረ	-10.1206
ado	-10.1206
▁bana	-10.1209
ܬ	-10.1211
▁ان	-10.1212
hk	-10.1217
dat	-10.1218
set	-10.1222
▁Bar	-10.1226
ден	-10.1231
ley	-10.1237
ई	-10.1242
▁untuk	-10.1245
▁att	-10.1246
▁toe	-10.125
▁wai	-10.1257
nos	-10.1258
kas	-10.1261
nang	-10.1263
▁لا	-10.1264
▁kare	-10.1269
bei	-10.127
▁آسیاب	-10.1272
▁say	-10.1273
ум	-10.128
▁کا	-10.1291
lı	-10.1297
LC	-10.1298
ghe	-10.13
▁swi	-10.1303
▁yen	-10.1305
▁kas	-10.1308
sch	-10.1308
▁hari	-10.131
ᒃ	-10.1333
▁lub	-10.1336
ema	-10.134
▁mbi	-10.134
red	-10.1342
vat	-10.1343
▁mil	-10.1347
leri	-10.1347
ທີ່	-10.1351
▁Dan	-10.1355
ում	-10.1355
mel	-10.1361
▁lei	-10.1363
yr	-10.1368
ག	-10.1369
oli	-10.1373
hr	-10.1385
ه‌	-10.1389
▁douk	-10.1396
፡	-10.1397
▁ಆ	-10.1398
▁ਹੈ	-10.1401
ses	-10.1403
bili	-10.1403
▁Бу	-10.1403
ត	-10.1408
▁wala	-10.1409
nel	-10.1414
жи	-10.1419
▁pay	-10.1424
ves	-10.1434
▁baba	-10.1435
▁र	-10.1438
▁ras	-10.1439
Ku	-10.1444
Di	-10.1454
int	-10.1458
shu	-10.1462
lele	-10.1464
ск	-10.1468
kum	-10.1469
dhe	-10.1472
ري	-10.1474
sten	-10.1475
én	-10.1477
ો	-10.1479
И	-10.1479
▁ph	-10.148
rà	-10.1488
inn	-10.1488
▁dar	-10.1488
sko	-10.1494
ના	-10.1501
▁sala	-10.1502
ར་	-10.1502
▁rai	-10.1505
ការ	-10.1507
▁yak	-10.1512
kur	-10.1515
сан	-10.1515
▁æ	-10.1516
ox	-10.1521
hun	-10.1522
tem	-10.1523
alo	-10.1525
▁Che	-10.1526
ero	-10.1531
vy	-10.1534
▁but	-10.1535
bor	-10.1539
kola	-10.1542
▁vei	-10.1546
ppe	-10.1546
▁aya	-10.1551
ᓕ	-10.1553
▁chan	-10.1553
rwa	-10.1554
hai	-10.1554
স	-10.1559
▁tai	-10.1561
▁पा	-10.1561
▁ш	-10.1563
har	-10.1573
tana	-10.1586
▁मे	-10.159
μ	-10.1592
най	-10.16
▁برای	-10.1613
▁iye	-10.1616
হ	-10.1622
oc	-10.163
ой	-10.1632
▁kor	-10.1634
လီၤ	-10.1637
iyaa	-10.1637
lí	-10.164
▁ہے	-10.1644
ក	-10.1648
པ་	-10.1651
▁दे	-10.1651
▁он	-10.1652
▁деп	-10.1653
▁kua	-10.1654
Mo	-10.1657
qi	-10.1658
▁Ng	-10.1665
мат	-10.1672
mpu	-10.1676
▁ке	-10.1692
con	-10.1698
▁papa	-10.17
▁تر	-10.17
▁from	-10.17
nem	-10.17
を	-10.1701
Ko	-10.1702
ova	-10.1711
▁ख	-10.1711
▁bụ	-10.1713
jai	-10.1713
रे	-10.1722
▁RTI	-10.1724
дз	-10.1725
chin	-10.1726
Si	-10.1728
▁Ad	-10.1732
▁си	-10.1732
▁má	-10.1732
sat	-10.1738
ဘၣ်	-10.1738
▁ኣ	-10.1741
kolo	-10.1746
▁सा	-10.1748
ግ	-10.1749
য়	-10.1754
▁all	-10.1756
▁አ	-10.1758
ral	-10.176
jer	-10.1761
▁mek	-10.1765
phi	-10.1766
▁tek	-10.1768
mente	-10.1772
▁چې	-10.1772
ባ	-10.1776
ေ	-10.1785
▁kpa	-10.1787
ล	-10.179
▁या	-10.179
▁sal	-10.1801
ato	-10.1806
ተ	-10.1808
ის	-10.1816
▁ای	-10.1824
▁kata	-10.1826
ін	-10.184
▁Ба	-10.1844
▁mpe	-10.1845
&	-10.1849
ନ	-10.1852
iñ	-10.1855
ии	-10.1855
ҳ	-10.1856
দ	-10.1858
▁эр	-10.1859
ι	-10.1865
▁amu	-10.1869
pak	-10.1871
▁على	-10.188
cio	-10.1881
ica	-10.1884
▁ths	-10.1886
ros	-10.1886
amo	-10.1887
▁manda	-10.1887
гы	-10.1895
ին	-10.19
nnu	-10.1901
bia	-10.1901
▁sen	-10.1907
for	-10.1908
▁kɔ	-10.1909
។	-10.1915
ара	-10.1917
ux	-10.1917
kul	-10.192
oh	-10.1928
▁jar	-10.1935
▁eg	-10.1938
LS	-10.1938
ス	-10.1941
gui	-10.1943
це	-10.1948
▁koo	-10.1955
▁Sam	-10.1955
lok	-10.1957
▁Ш	-10.1957
▁reta	-10.1959
（	-10.1962
▁gan	-10.1981
mus	-10.1984
▁On	-10.1985
▁For	-10.1991
ɔɔ	-10.1992
дер	-10.1994
▁ndo	-10.1995
▁ल	-10.1998
гъ	-10.2002
يا	-10.2003
ве	-10.2004
▁ŋu	-10.2004
zhi	-10.2009
▁kuba	-10.2009
▁sim	-10.2017
▁。	-10.202
ਲ	-10.2024
get	-10.2025
जी	-10.203
У	-10.2033
ŋa	-10.2034
लो	-10.2035
▁parti	-10.2036
mina	-10.2037
dis	-10.2038
Б	-10.2038
▁gaw	-10.2043
yé	-10.2044
гь	-10.2045
ś	-10.2046
اں	-10.2047
zar	-10.2055
▁pin	-10.2058
▁nopa	-10.2059
ٹ	-10.206
ܘ	-10.2061
tah	-10.2067
▁گ	-10.2072
▁plan	-10.2073
ě	-10.2074
lel	-10.2075
zion	-10.2077
ят	-10.2089
О	-10.209
▁qe	-10.2098
ે	-10.2098
ۋ	-10.2101
iv	-10.2108
Ꮧ	-10.2108
dai	-10.2114
kol	-10.2115
kama	-10.2115
uti	-10.2117
▁enn	-10.2119
gy	-10.212
ሉ	-10.2123
mene	-10.2124
ħ	-10.2124
ก	-10.2125
ሳ	-10.2127
lela	-10.213
▁ky	-10.213
oma	-10.2131
্	-10.2133
сто	-10.2135
▁mme	-10.2135
tika	-10.2138
gwa	-10.2142
anta	-10.2143
▁کې	-10.2143
▁های	-10.2148
▁बि	-10.2149
gha	-10.2149
▁rẹ	-10.215
sala	-10.215
▁+	-10.2153
тын	-10.2155
▁א	-10.2157
ыт	-10.2159
։	-10.216
▁Jesucristo	-10.2161
▁loo	-10.2162
if	-10.2165
▁सु	-10.2168
ланы	-10.2169
хъ	-10.2169
dro	-10.217
zon	-10.2173
जा	-10.2174
ans	-10.2174
▁иш	-10.218
▁आउ	-10.2181
sik	-10.2182
rem	-10.2185
tat	-10.2186
▁cum	-10.2189
ик	-10.2192
▁New	-10.2203
дыр	-10.2204
ច	-10.2208
▁ola	-10.2208
▁दु	-10.2216
lio	-10.2218
ル	-10.2226
▁Pedro	-10.2226
▁ਦੇ	-10.2226
κ	-10.2226
▁Zo	-10.2227
▁bee	-10.2229
gba	-10.223
▁moo	-10.2231
rk	-10.2232
▁asin	-10.2234
П	-10.2234
▁oyo	-10.2235
▁کر	-10.2235
▁Ver	-10.2235
my	-10.2245
▁pal	-10.2245
▁pyn	-10.2247
▁pang	-10.2248
adi	-10.2249
oy	-10.2253
eli	-10.2257
▁caw	-10.2258
ата	-10.2265
▁nen	-10.2271
kira	-10.2272
▁кор	-10.2273
▁tso	-10.2275
▁ⵉ	-10.2276
mber	-10.228
ھ	-10.2281
аб	-10.2286
pet	-10.229
nika	-10.2295
rea	-10.2296
▁une	-10.2299
▁pé	-10.2303
ек	-10.2303
má	-10.2306
▁kami	-10.2308
▁ай	-10.2308
Ꭲ	-10.2308
gad	-10.2309
න	-10.231
▁эм	-10.2312
ја	-10.2315
▁అ	-10.2317
ista	-10.2328
▁hong	-10.2329
▁gia	-10.233
inga	-10.2331
▁Ab	-10.2333
▁May	-10.2334
ێ	-10.2339
上	-10.234
▁dit	-10.2344
җ	-10.2344
eno	-10.2344
υ	-10.2345
ల	-10.2346
ech	-10.235
उ	-10.235
aku	-10.2354
લ	-10.2355
tau	-10.2357
માં	-10.2357
art	-10.2358
رو	-10.236
qo	-10.236
ਸ	-10.2362
spa	-10.2365
ø	-10.2365
▁dóó	-10.2366
න්	-10.237
ല	-10.237
▁pot	-10.2373
̲	-10.2374
▁ɛn	-10.2378
ፍ	-10.2386
sim	-10.2401
ક	-10.2408
ገ	-10.2409
pé	-10.2409
ຂອງ	-10.241
mé	-10.241
ր	-10.2411
▁Н	-10.2416
▁ano	-10.2417
ndra	-10.2419
хи	-10.242
jã	-10.2426
ມ	-10.2427
Œ	-10.2427
▁fana	-10.2433
ܪ	-10.2433
dem	-10.2435
▁uz	-10.2437
ੇ	-10.2441
ಕ	-10.2441
rie	-10.2441
twa	-10.2445
ngka	-10.2446
nk	-10.2447
kɔ	-10.2449
▁kri	-10.245
▁Her	-10.2453
andi	-10.2456
की	-10.2457
▁có	-10.2459
▁mee	-10.2464
лен	-10.2466
▁Ana	-10.2471
ayi	-10.2472
tung	-10.2475
▁inter	-10.2477
An	-10.2478
ܕ	-10.2486
алда	-10.2488
ਮ	-10.2498
▁نا	-10.2501
sina	-10.2501
▁ла	-10.2501
▁раз	-10.2502
▁ተ	-10.2507
▁sp	-10.2511
▁maha	-10.2512
▁ор	-10.2513
bala	-10.2514
бо	-10.2514
mati	-10.2516
wang	-10.2518
ની	-10.2524
▁Den	-10.2524
▁rü	-10.2525
лә	-10.2527
▁khu	-10.2528
▁Fu	-10.2529
‹	-10.2531
）	-10.2536
መ	-10.2541
biri	-10.2544
хан	-10.2552
▁tang	-10.2554
siya	-10.2555
abi	-10.2559
ܝ	-10.256
tto	-10.2562
تر	-10.2563
ര	-10.2564
ન	-10.2565
tet	-10.2566
لي	-10.2566
ийн	-10.2566
jak	-10.2568
▁tá	-10.257
še	-10.2574
fin	-10.2574
▁خ	-10.2576
ation	-10.2579
eta	-10.2579
por	-10.258
tara	-10.2581
▁kada	-10.2584
iro	-10.2586
▁paa	-10.2588
abo	-10.2589
اء	-10.2598
യ	-10.2598
ထ	-10.2599
ame	-10.2603
▁kama	-10.2604
▁kina	-10.261
ей	-10.261
▁bot	-10.2611
▁yaa	-10.2613
▁ر	-10.2614
▁yin	-10.2615
ule	-10.2618
ⁿ	-10.2619
▁wun	-10.2623
ок	-10.2625
▁mada	-10.2625
нэ	-10.2629
▁அ	-10.2631
če	-10.2634
ۆ	-10.2635
rom	-10.2636
▁ré	-10.2643
▁ни	-10.2644
ute	-10.2645
▁”	-10.2646
rca	-10.2648
▁ዝ	-10.2653
riya	-10.2654
sem	-10.2657
▁Я	-10.2668
▁lea	-10.2673
oq	-10.2673
▁जे	-10.2675
ບ	-10.2679
ëŠ	-10.2681
▁सं	-10.2681
▁jadi	-10.2683
▁По	-10.2689
▁tsi	-10.269
awa	-10.2693
hay	-10.2693
▁ilo	-10.2695
nh	-10.2705
▁ए	-10.2712
མ་	-10.2714
▁tok	-10.2718
ז	-10.2719
用	-10.2729
▁ete	-10.2731
pita	-10.2731
bere	-10.2733
kku	-10.2734
dak	-10.2736
phu	-10.2737
dah	-10.2739
पा	-10.2739
▁район	-10.2742
▁Am	-10.2749
ם	-10.2755
އް	-10.2758
စ	-10.2763
рин	-10.2767
ပါ	-10.277
bé	-10.2771
▁ü	-10.2771
zin	-10.2772
▁Ze	-10.2773
aja	-10.2773
yak	-10.2773
chic	-10.2773
▁hta	-10.2776
tani	-10.278
▁وال	-10.2785
car	-10.2787
kki	-10.279
ᑕ	-10.2791
が	-10.2792
▁mini	-10.2792
▁Ber	-10.2795
▁ᐊ	-10.2798
▁gar	-10.2801
ار	-10.2801
ис	-10.2807
▁ezi	-10.2808
Ti	-10.2812
>	-10.2815
ܐ	-10.2815
kri	-10.2816
кан	-10.2817
▁ile	-10.2818
èr	-10.2819
▁fin	-10.2821
▁gbe	-10.2823
nay	-10.2826
ही	-10.2828
ض	-10.2832
elo	-10.2834
hari	-10.2836
▁és	-10.2836
To	-10.2837
ث	-10.284
▁tala	-10.2846
hui	-10.2848
hna	-10.2848
▁muri	-10.2848
¬	-10.2853
న	-10.2858
ity	-10.2858
гъан	-10.2861
▁zai	-10.2866
ney	-10.2875
Ni	-10.2884
▁Ani	-10.2886
▁ई	-10.2895
▁pes	-10.2896
lap	-10.2899
nā	-10.2902
kela	-10.2904
▁taudia	-10.291
wng	-10.2912
▁Mag	-10.2913
▁kaw	-10.2914
xü̃	-10.2915
▁în	-10.2919
ень	-10.292
lal	-10.2925
▁agu	-10.2925
ps	-10.2925
▁سا	-10.2929
til	-10.293
zwa	-10.2935
ဆ	-10.2935
ora	-10.2935
▁ñ	-10.2936
Le	-10.2937
▁nú	-10.2943
гар	-10.2943
ᖃ	-10.2945
ರಿ	-10.2947
lana	-10.2949
hang	-10.295
▁Et	-10.2956
тэ	-10.2957
▁adi	-10.2959
▁dre	-10.2961
ས་	-10.2964
▁ю	-10.2967
дир	-10.2967
pia	-10.2976
▁basa	-10.2979
rɛ	-10.298
▁ти	-10.2986
tim	-10.2989
▁ап	-10.2989
mala	-10.2989
▁iri	-10.299
ित	-10.2991
▁pos	-10.2995
▁dekenai	-10.2997
▁bit	-10.2997
▁އެ	-10.3006
wh	-10.3011
ید	-10.3013
ர்	-10.3014
▁not	-10.3019
▁Ꭴ	-10.3027
▁Men	-10.3028
लि	-10.3031
▁ɖe	-10.3032
kunata	-10.304
ម	-10.3042
▁lalu	-10.3043
জ	-10.3045
મ	-10.3046
▁шо	-10.3048
▁dao	-10.3051
bɛ	-10.3051
cuna	-10.3056
rim	-10.306
ká	-10.306
▁mele	-10.3072
ļ	-10.3072
ča	-10.3079
ط	-10.308
▁zhong	-10.3088
▁mid	-10.309
mek	-10.309
ds	-10.31
dal	-10.3103
து	-10.3105
▁este	-10.3116
▁pia	-10.3117
tɔ	-10.3118
▁pea	-10.312
kere	-10.3122
.”—	-10.3122
▁sani	-10.3124
ысь	-10.3124
tä	-10.3124
ਤ	-10.3126
ᒥ	-10.3127
Mu	-10.3127
saun	-10.3127
дә	-10.3129
ว	-10.3133
Х	-10.3133
०	-10.3133
iso	-10.3136
▁об	-10.3136
ที่	-10.3137
ງ	-10.3138
शा	-10.3138
▁thei	-10.3141
▁Vo	-10.3144
пи	-10.3145
ḍ	-10.3146
▁Nzambi	-10.3147
▁तो	-10.3148
უ	-10.315
χ	-10.3151
nju	-10.3152
▁dehn	-10.3154
ᓯ	-10.3155
ան	-10.3156
▁як	-10.3157
▁kpo	-10.3159
ху	-10.3159
ğ	-10.3162
cher	-10.3163
tè	-10.3166
dad	-10.3167
▁мар	-10.3189
▁צו	-10.3195
ksi	-10.3196
▁kapa	-10.32
сэ	-10.3206
وم	-10.3206
ᐅ	-10.3208
▁سو	-10.3213
tou	-10.3213
▁ema	-10.3213
het	-10.3215
▁Tha	-10.3216
zer	-10.3218
king	-10.322
ën	-10.3223
rah	-10.3226
ને	-10.3228
▁Tra	-10.3234
▁kur	-10.3237
Be	-10.3238
到	-10.3239
ӕ	-10.3239
▁हा	-10.324
▁dina	-10.3241
ges	-10.3245
ત	-10.3246
De	-10.3247
ים	-10.3249
▁vel	-10.325
თ	-10.3252
mang	-10.3253
ደ	-10.3253
wak	-10.3254
yum	-10.3259
▁እ	-10.3261
BODY	-10.3263
ص	-10.3264
▁къы	-10.3266
ces	-10.3271
μα	-10.3274
▁yɔ	-10.3282
yat	-10.3285
▁ಮ	-10.3285
В	-10.3286
анд	-10.3288
ion	-10.329
DLID	-10.3293
ร	-10.3295
▁yô	-10.3301
▁ز	-10.3301
ڪ	-10.3302
▁tapi	-10.3303
▁hen	-10.3304
▁von	-10.3304
ב	-10.3309
▁·	-10.3312
guna	-10.3314
tong	-10.3317
▁mis	-10.3318
gang	-10.3322
रि	-10.3333
▁छ	-10.3339
▁ас	-10.3341
▁ayeke	-10.3342
▁Pre	-10.3344
▁ко	-10.3349
ep	-10.335
▁ре	-10.3352
ска	-10.3353
▁Zi	-10.3354
ர	-10.3358
▁raz	-10.336
kus	-10.3362
▁kale	-10.3365
лаш	-10.3368
บ	-10.3374
▁Abraham	-10.3383
▁size	-10.3383
▁hain	-10.3385
ller	-10.3387
yl	-10.3389
ٱ	-10.3391
▁Qa	-10.3392
▁الأ	-10.3393
▁чи	-10.34
▁За	-10.34
qe	-10.3402
▁ass	-10.3403
▁ја	-10.3406
ও	-10.341
▁post	-10.3411
Se	-10.3413
▁sè	-10.3414
▁Ц	-10.3414
▁yog	-10.3418
adh	-10.3419
▁fil	-10.3419
▁esi	-10.3422
bon	-10.3422
▁tel	-10.3423
لو	-10.3423
▁yéetel	-10.3425
ний	-10.3426
Ꮒ	-10.3427
aro	-10.3428
mwa	-10.3428
▁mbe	-10.343
paj	-10.343
ਕ	-10.3432
لی	-10.3432
▁olu	-10.3434
ине	-10.3436
・	-10.344
▁niya	-10.3442
fen	-10.3443
umu	-10.3446
ез	-10.3446
nger	-10.3447
▁Ce	-10.345
▁kini	-10.3459
▁nama	-10.346
▁lah	-10.3463
▁۽	-10.3469
▁aan	-10.3471
med	-10.3471
い	-10.3481
bh	-10.3496
kä	-10.3496
ñu	-10.3498
gga	-10.3504
ዋ	-10.3504
gel	-10.3504
hl	-10.3507
▁ib	-10.3508
gam	-10.3509
ләр	-10.3509
›	-10.351
▁lava	-10.3512
гъу	-10.3513
▁ɖɔ	-10.3515
ခ	-10.3516
▁tí	-10.3521
▁Ф	-10.3522
▁vae	-10.3523
kia	-10.3525
▁ከ	-10.3527
ए	-10.3533
▁мен	-10.3533
ऽ	-10.3534
ede	-10.3535
ude	-10.3542
ph	-10.3546
▁fè	-10.3547
دی	-10.3547
#	-10.3548
ши	-10.3549
▁fra	-10.3549
tori	-10.3551
▁online	-10.3552
ด	-10.3552
▁Or	-10.3553
འི་	-10.3555
ੀ	-10.356
▁vil	-10.3563
ိ	-10.3564
▁azo	-10.3565
▁bra	-10.3568
▁kap	-10.3572
에	-10.3575
aru	-10.3575
кі	-10.3577
را	-10.3579
тай	-10.3581
онь	-10.3581
▁esas	-10.3582
tele	-10.3582
নি	-10.3584
እ	-10.3584
▁nt	-10.3585
Ya	-10.3585
دار	-10.3586
▁up	-10.3591
tí	-10.3597
▁الت	-10.3599
▁ना	-10.3604
ၣ်	-10.3608
ree	-10.3608
▁ĩ	-10.3608
ҳо	-10.361
▁come	-10.3617
▁ओ	-10.3617
가	-10.3617
▁diri	-10.3619
rek	-10.3625
▁ኣብ	-10.3629
dig	-10.363
▁kere	-10.363
hle	-10.3631
ся	-10.3632
jem	-10.3638
▁raha	-10.3638
pang	-10.364
▁ला	-10.3642
▁vir	-10.3643
고	-10.3643
leg	-10.3644
ย	-10.3647
ዕ	-10.3647
▁pala	-10.3648
ວ	-10.3648
▁bun	-10.3651
▁۾	-10.3652
kit	-10.366
mik	-10.366
▁tɔn	-10.3664
keun	-10.3665
▁кар	-10.3667
વા	-10.3675
▁wey	-10.3676
ün	-10.3677
ӹ	-10.3682
י	-10.3683
ⵉⵏ	-10.3684
para	-10.3688
▁quin	-10.3692
▁tele	-10.3692
▁Tuhan	-10.3693
ws	-10.3694
▁whaka	-10.3694
▁weh	-10.3694
▁við	-10.37
kuti	-10.3707
ዳ	-10.3711
▁Qaalaa	-10.3713
▁bengaluru	-10.3715
তি	-10.3716
lè	-10.3717
▁menge	-10.3717
は	-10.372
▁tana	-10.3721
▁net	-10.3722
ça	-10.3723
ვ	-10.373
дын	-10.3731
ת	-10.3732
dok	-10.3733
▁അ	-10.3733
ᑎ	-10.3735
ၵ	-10.3735
月	-10.3737
▁Ali	-10.375
▁como	-10.3756
ный	-10.3757
ип	-10.3759
Г	-10.376
▁Kristus	-10.3761
ක්	-10.3763
eme	-10.3766
▁sh	-10.3768
▁ⵙ	-10.3771
▁वा	-10.3774
wl	-10.3779
በ	-10.3781
▁nyu	-10.3782
▁bil	-10.3783
▁kya	-10.3787
َ	-10.3792
ܟ	-10.3793
gt	-10.3796
▁kaka	-10.3808
kani	-10.3808
▁pli	-10.3808
▁nos	-10.3809
▁й	-10.381
ේ	-10.381
▁Pri	-10.3821
▁ahn	-10.3822
▁bol	-10.3822
гъэ	-10.3823
oko	-10.3823
kim	-10.3826
tera	-10.3827
ौ	-10.3831
ു	-10.3831
▁און	-10.3835
▁ⴳ	-10.3838
▁hau	-10.3839
▁Die	-10.3854
vet	-10.3855
niya	-10.3857
া	-10.3863
▁olo	-10.3864
▁Ai	-10.3864
že	-10.3864
▁fé	-10.3868
mara	-10.3868
▁ᎠᎴ	-10.3872
ⴰⵏ	-10.388
▁maga	-10.3881
dit	-10.3883
▁aye	-10.3884
▁hna	-10.3891
bus	-10.3896
्य	-10.3897
▁koe	-10.3899
bit	-10.3899
⁠	-10.3903
,+	-10.3906
ащ	-10.3909
ló	-10.3911
xan	-10.3913
▁го	-10.3913
▁dè	-10.3913
▁mani	-10.3914
▁sane	-10.3917
wr	-10.3921
ков	-10.3922
ជា	-10.3924
ค	-10.3925
؟	-10.3931
rung	-10.3931
▁guo	-10.3932
tom	-10.3932
हा	-10.3935
ime	-10.3937
▁fir	-10.3939
oti	-10.3939
lab	-10.3944
▁سے	-10.3944
▁bas	-10.3946
▁ulu	-10.3949
сем	-10.3952
▁ntawm	-10.3957
▁вы	-10.3961
▁Tama	-10.3961
▁pasa	-10.3961
ted	-10.3961
cunata	-10.3965
hia	-10.397
▁﻿	-10.3971
▁ram	-10.3971
ць	-10.3973
mia	-10.3973
▁mus	-10.3978
nci	-10.3979
ül	-10.398
▁rak	-10.3982
▁ܒ	-10.3985
▁sti	-10.3985
▁yal	-10.3985
سی	-10.3988
ತ್	-10.3989
▁Car	-10.399
▁épi	-10.3991
▁far	-10.3993
кы	-10.3994
ction	-10.3995
лі	-10.3995
its	-10.3996
ник	-10.3997
ᐃ	-10.3997
ো	-10.4002
▁tena	-10.4013
cie	-10.4014
gur	-10.4014
jun	-10.4022
cer	-10.4025
▁mü	-10.4026
▁doo	-10.4027
эрэ	-10.4028
▁ми	-10.4029
▁Ꭰ	-10.4031
naga	-10.4033
მ	-10.4033
ത	-10.404
ый	-10.404
ді	-10.4041
ets	-10.4045
ið	-10.4048
▁oro	-10.4054
▁bet	-10.4056
ों	-10.4057
▁tz	-10.4057
▁του	-10.4057
▁sei	-10.4061
aren	-10.4068
▁dos	-10.4068
ות	-10.4069
▁kɛ̀	-10.407
tina	-10.4074
▁bwa	-10.4075
▁पु	-10.4076
▁thiab	-10.4076
▁gba	-10.4081
▁gel	-10.4083
bali	-10.4088
▁ಬ	-10.409
ала	-10.4091
пе	-10.4091
▁Ọ	-10.4099
lung	-10.4099
Bo	-10.41
say	-10.4105
baka	-10.4109
ّ	-10.4111
▁тур	-10.4112
▁mua	-10.4115
rka	-10.4125
ları	-10.4127
стан	-10.4127
ސް	-10.4128
є	-10.413
may	-10.4134
▁siya	-10.4134
dee	-10.4137
uch	-10.4137
rani	-10.4138
出	-10.4138
อ	-10.4141
▁pawl	-10.4142
ος	-10.4143
dun	-10.4146
▁nè	-10.4151
ା	-10.4158
▁να	-10.4159
日	-10.4162
mini	-10.4164
ܠ	-10.4165
▁Aba	-10.4165
يت	-10.417
མ	-10.417
▁uye	-10.4172
dio	-10.4172
dim	-10.4173
ύ	-10.4176
pot	-10.4178
▁ké	-10.4178
ের	-10.4179
▁Roma	-10.418
alal	-10.418
▁tru	-10.4181
stru	-10.4182
▁đ	-10.4183
ង	-10.4183
▁פון	-10.4186
▁mew	-10.4188
कार	-10.419
nene	-10.419
▁Shi	-10.419
▁kasi	-10.4194
ҳои	-10.4198
▁uk	-10.4199
▁هم	-10.4201
Wa	-10.4202
ык	-10.4203
▁nk	-10.4208
▁musu	-10.4209
Н	-10.4211
▁کي	-10.4211
▁Ка	-10.4212
star	-10.4213
▁wal	-10.4216
teri	-10.4217
▁komo	-10.4219
▁nehe	-10.422
▁אַ	-10.4222
¹	-10.4223
vas	-10.4224
র্	-10.4224
▁vun	-10.4226
▁Aku	-10.4227
pra	-10.4228
Li	-10.4228
rri	-10.4232
eya	-10.4232
ᖓ	-10.4234
uan	-10.4237
ත්	-10.424
▁mwet	-10.424
mil	-10.4242
ോ	-10.4246
▁बे	-10.4247
лъ	-10.4248
▁bat	-10.425
▁mwen	-10.425
ট	-10.425
ige	-10.4252
ın	-10.4253
dhu	-10.4254
▁Е	-10.4255
ais	-10.4255
lus	-10.4255
▁sɔ	-10.4256
▁karo	-10.4258
▁של	-10.4265
kti	-10.4269
▁khat	-10.4274
obo	-10.4274
▁leng	-10.4277
тор	-10.4279
▁ran	-10.4281
▁dang	-10.4283
▁lá	-10.4287
▁kui	-10.429
cin	-10.4296
ႈ	-10.4302
▁ihe	-10.4304
▁sol	-10.4305
lag	-10.4305
nama	-10.4307
▁Para	-10.4309
ท	-10.431
ms	-10.432
rei	-10.4324
bele	-10.4326
】	-10.4328
No	-10.433
▁ಇ	-10.433
raa	-10.4331
▁familia	-10.4331
ван	-10.4332
Da	-10.4337
▁won	-10.4339
och	-10.4341
▁кел	-10.4341
ア	-10.4345
тен	-10.4352
rap	-10.4353
دە	-10.4355
▁lua	-10.4356
نگ	-10.4357
уу	-10.4358
luk	-10.4365
▁Sha	-10.4366
fala	-10.4368
▁!	-10.437
▁ပ	-10.4371
େ	-10.4371
▁idi	-10.4371
Re	-10.4372
त्	-10.4373
ୁ	-10.4376
бу	-10.4376
▁το	-10.4377
ܳܐ	-10.438
▁^	-10.4382
▁гу	-10.4387
▁गो	-10.4387
rika	-10.4388
rî	-10.4389
▁iru	-10.439
ጋ	-10.4395
▁ڤ	-10.4397
င်	-10.4398
raka	-10.4399
वि	-10.4402
ಲ್	-10.4403
ਾਂ	-10.4404
▁án	-10.4406
lou	-10.4406
ሕ	-10.4409
ssu	-10.441
▁kë	-10.4411
եր	-10.4413
ি	-10.4414
ო	-10.4419
rio	-10.4423
اس	-10.4425
sum	-10.4427
اي	-10.4428
mmer	-10.4429
ther	-10.4432
сын	-10.4434
▁এ	-10.4434
ቲ	-10.4434
▁ibi	-10.4435
̠	-10.4436
▁kot	-10.4443
oro	-10.4443
▁हम	-10.4444
▁over	-10.4446
ини	-10.4449
▁və	-10.445
▁bwe	-10.445
▁kali	-10.445
ec	-10.4452
вер	-10.4453
ció	-10.4453
dur	-10.4455
▁là	-10.4456
▁omu	-10.4457
▁faa	-10.4458
▁tout	-10.446
dom	-10.446
พ	-10.446
ሰ	-10.4461
▁bor	-10.4466
▁chic	-10.4467
▁noho	-10.4468
▁دو	-10.447
lit	-10.4472
π	-10.4473
ꞌu	-10.4475
▁nka	-10.4476
▁ܕ	-10.4478
▁mono	-10.4479
▁txi	-10.4479
une	-10.448
ť	-10.4481
ᕐ	-10.4481
▁jong	-10.4481
ጠ	-10.4486
mili	-10.4487
нг	-10.4491
▁ase	-10.4497
ල	-10.4498
▁ይ	-10.4501
igh	-10.4501
pho	-10.4502
ဒီး	-10.4508
▁pwe	-10.451
хо	-10.4511
ibi	-10.4516
▁مع	-10.4518
nku	-10.4518
▁uli	-10.4519
▁ket	-10.4519
▁alle	-10.4523
‚	-10.4524
▁ahi	-10.4528
agh	-10.4528
▁له	-10.4533
unu	-10.4534
të	-10.4536
ክ	-10.4537
▁inte	-10.4538
▁کہ	-10.4538
عا	-10.4548
tanga	-10.4552
▁mä	-10.4552
laka	-10.456
ggi	-10.4563
sus	-10.4565
yam	-10.4566
က်	-10.4573
¼	-10.4574
þ	-10.4574
rana	-10.4578
shca	-10.4579
mela	-10.458
rde	-10.4583
▁Ол	-10.4591
zia	-10.4592
mme	-10.4593
▁Zu	-10.4595
tzen	-10.46
▁tino	-10.4601
▁dir	-10.4602
Ꮅ	-10.4615
line	-10.4617
▁Cor	-10.4617
▁þ	-10.462
▁эди	-10.4631
▁ху	-10.4632
▁сы	-10.4632
▁bai	-10.4633
ಗ	-10.4633
▁هو	-10.4636
yê	-10.4636
ט	-10.4637
▁thn	-10.4638
rê	-10.4644
way	-10.4645
maka	-10.4645
نى	-10.4647
ده	-10.4651
▁ис	-10.4653
▁Pen	-10.4655
ό	-10.4656
▁ಕ	-10.4656
ega	-10.4661
یت	-10.4666
▁pali	-10.4667
▁Har	-10.4672
agi	-10.4673
ων	-10.4679
ಮ	-10.4681
ङ	-10.4684
ర్	-10.4686
ต	-10.4689
nden	-10.469
cija	-10.4691
▁yet	-10.4697
▁amba	-10.4699
од	-10.47
bul	-10.4701
sana	-10.4703
▁moun	-10.4703
lisi	-10.4704
дэ	-10.4705
▁res	-10.4707
β	-10.4707
▁آهي	-10.4707
tā	-10.4708
тә	-10.4712
▁nä	-10.4712
▁жа	-10.4715
ина	-10.4717
wai	-10.4718
lom	-10.4718
க	-10.4718
和	-10.472
བ་	-10.4723
mele	-10.4726
▁manu	-10.4727
ये	-10.4727
वे	-10.4731
െ	-10.4732
▁wani	-10.4733
wat	-10.4734
ct	-10.4734
তা	-10.4737
къа	-10.4738
ìš	-10.474
▁ike	-10.4744
▁hon	-10.4746
É	-10.4747
tamo	-10.4748
生	-10.475
▁win	-10.4755
mento	-10.4757
ง	-10.4758
mwi	-10.4758
िक	-10.4759
tima	-10.4759
ສະ	-10.4764
▁cor	-10.4765
сть	-10.4769
▁یا	-10.477
ער	-10.4775
рд	-10.4775
ጥ	-10.4778
ró	-10.478
▁တ	-10.4783
вал	-10.4784
▁meh	-10.4784
गा	-10.4785
mor	-10.4786
▁ले	-10.4788
day	-10.479
▁tuku	-10.4791
ᐊ	-10.4792
ыны	-10.4792
leh	-10.4793
ၶ	-10.4793
ु	-10.4794
dzo	-10.4794
▁jam	-10.4795
▁Ndi	-10.4795
^	-10.4797
▁wɛ	-10.4797
▁gud	-10.4797
▁ܐ	-10.4798
kaka	-10.4802
fra	-10.4806
▁Sta	-10.4806
▁ô	-10.4808
▁mes	-10.4811
▁hé	-10.4812
ਟ	-10.4813
▁نه	-10.4815
ⵙ	-10.4822
▁sma	-10.4823
ulo	-10.4824
ទ	-10.4825
tali	-10.4825
▁mari	-10.4833
▁Ɛ	-10.4833
▁што	-10.4834
▁bata	-10.4834
of	-10.4836
iva	-10.4837
udi	-10.4848
ido	-10.485
▁neu	-10.4851
их	-10.4851
iyo	-10.4851
▁At	-10.4855
tó	-10.4855
sie	-10.4856
jim	-10.4858
▁بی	-10.4859
ún	-10.486
▁ej	-10.486
iba	-10.4861
jon	-10.4861
▁pole	-10.4862
ද	-10.4866
▁lek	-10.4868
▁vin	-10.4868
▁Mon	-10.4869
ahi	-10.4872
bɔ	-10.4875
▁دي	-10.4879
▁enda	-10.4879
▁প	-10.4881
usa	-10.4887
▁Sang	-10.489
يد	-10.4891
vq	-10.4891
нан	-10.4896
▁ndu	-10.4898
▁अछि	-10.49
put	-10.4901
▁gal	-10.4901
と	-10.4907
yta	-10.4913
▁dhi	-10.4913
▁Ч	-10.4914
cita	-10.4916
ice	-10.4916
ಗೆ	-10.4919
▁doko	-10.4921
maan	-10.4921
ӱ	-10.4926
வ	-10.4928
bai	-10.4928
ၤ	-10.493
ía	-10.4931
▁کار	-10.4936
gia	-10.4943
ని	-10.4945
▁tot	-10.4946
سا	-10.4948
▁oti	-10.495
▁för	-10.4951
▁ipan	-10.4952
▁ava	-10.4957
▁soni	-10.4959
‵	-10.4959
▁Л	-10.496
▁хо	-10.4961
nal	-10.4961
▁awa	-10.4962
▁mia	-10.4965
hara	-10.4969
tsu	-10.4969
нар	-10.4971
but	-10.4981
ным	-10.4982
ק	-10.4983
വ	-10.4984
▁Mawu	-10.4986
▁З	-10.4988
hol	-10.4989
ാ	-10.499
uje	-10.4992
▁uu	-10.4993
bli	-10.5001
▁Maria	-10.5002
gle	-10.5003
▁sana	-10.5005
▁இ	-10.5005
▁tɛ	-10.5006
▁pak	-10.5006
lari	-10.5009
stri	-10.5009
ဝ	-10.501
▁inn	-10.501
ં	-10.5012
ర	-10.502
ⴷ	-10.5024
ув	-10.5025
▁nana	-10.5025
ىن	-10.5026
ail	-10.5026
▁Chay	-10.5028
ու	-10.5029
pata	-10.5034
པའི་	-10.504
ރު	-10.504
jet	-10.5042
▁video	-10.5043
rig	-10.5043
▁his	-10.5046
">	-10.505
▁π	-10.5051
ған	-10.5053
tlh	-10.5055
▁ಸ	-10.5057
kua	-10.5058
tuk	-10.5059
▁Nda	-10.5061
ମ	-10.5061
▁Xi	-10.5064
▁gha	-10.5066
▁isa	-10.507
▁Á	-10.5071
hala	-10.5072
ել	-10.5073
ठ	-10.5075
ow	-10.5081
аль	-10.5081
anu	-10.5083
ớp	-10.5083
лю	-10.5086
▁ayi	-10.5089
wy	-10.5089
ht	-10.5089
▁hy	-10.5092
▁ते	-10.5092
ಸ	-10.5093
nami	-10.5094
▁January	-10.5094
Е	-10.5095
ང་	-10.5099
การ	-10.51
bun	-10.5105
dina	-10.5105
ί	-10.5108
्	-10.5108
ذ	-10.5112
vá	-10.5114
▁Ex	-10.5114
dı	-10.5115
▁mor	-10.5118
khi	-10.5122
▁пре	-10.5124
شت	-10.5125
▁سی	-10.5127
▁lok	-10.513
ого	-10.513
су	-10.5132
▁nanga	-10.5135
ਾ	-10.5135
▁oc	-10.5137
noj	-10.5138
▁পা	-10.5139
май	-10.5147
▁dhu	-10.5149
laj	-10.5151
bla	-10.5155
ví	-10.5156
يل	-10.5156
langa	-10.5157
ⵉ	-10.5158
kap	-10.5161
lje	-10.5165
ತ	-10.5166
▁આ	-10.5167
▁Со	-10.5167
sil	-10.5173
▁pha	-10.5174
▁Au	-10.5198
ש	-10.5201
gre	-10.5202
эк	-10.5202
▁chin	-10.5202
hte	-10.5204
uv	-10.5207
ॉ	-10.5208
▁ብ	-10.521
għ	-10.5212
ÿ	-10.5215
ˍ	-10.5219
η	-10.5225
▁zwi	-10.5227
ει	-10.5228
▁اي	-10.5228
▁ann	-10.5232
रो	-10.5232
▁tuma	-10.5235
tten	-10.5237
▁Sch	-10.5238
▁seng	-10.5238
ன்	-10.524
▁wy	-10.5242
आ	-10.5244
ူ	-10.5245
▁tua	-10.5246
▁sareng	-10.5247
use	-10.5247
▁forma	-10.5249
▁ву	-10.5251
rh	-10.5251
sei	-10.5254
ⴼ	-10.5255
Ꭹ	-10.5257
rma	-10.5259
kau	-10.5262
xin	-10.5264
▁gam	-10.5265
▁sel	-10.5268
▁yeke	-10.5269
ರು	-10.5269
▁ها	-10.5273
bol	-10.5273
▁ऊ	-10.5273
്	-10.5276
▁гьа	-10.5278
ಡ್	-10.5279
な	-10.5279
ե	-10.5285
ቀ	-10.5287
▁poli	-10.5289
pili	-10.5289
wala	-10.5289
mur	-10.5295
уд	-10.5299
вар	-10.5302
▁saka	-10.5307
ume	-10.5309
uin	-10.5315
▁mut	-10.5316
▁Ida	-10.5318
ქ	-10.5325
gna	-10.5328
▁anti	-10.5328
▁taka	-10.5332
▁ܠ	-10.5332
تى	-10.5336
▁spo	-10.5337
ແ	-10.5338
▁tauna	-10.5341
▁Pol	-10.5347
▁ɖò	-10.5348
ல	-10.5349
▁pil	-10.5349
▁ප	-10.535
▁yab	-10.535
दी	-10.5353
▁Dr	-10.5354
saa	-10.5356
ante	-10.5357
ི	-10.536
lä	-10.5362
▁dɔ	-10.5367
▁ہو	-10.5368
▁hala	-10.5368
lua	-10.5369
bya	-10.5371
log	-10.5372
▁val	-10.5372
یان	-10.5381
▁mac	-10.5383
န့ၣ်	-10.5387
Ke	-10.5389
▁ን	-10.5391
▁tsy	-10.5392
▁دە	-10.5394
ፈ	-10.5395
▁daw	-10.5395
で	-10.5397
▁Qu	-10.5397
via	-10.54
Mat	-10.5403
ག་	-10.5404
ါ	-10.5405
wit	-10.5407
▁ist	-10.5409
▁deng	-10.5411
▁pare	-10.5412
?"	-10.5413
èl	-10.5415
▁Min	-10.5415
Ki	-10.5417
osi	-10.5422
цы	-10.5428
▁ũ	-10.5431
យ	-10.5433
▁film	-10.5433
ध	-10.5433
▁че	-10.5434
kiri	-10.5435
地	-10.5437
ija	-10.5437
reng	-10.5438
▁zong	-10.5439
rä	-10.5439
ου	-10.5447
weni	-10.5453
ус	-10.5459
aan	-10.546
య	-10.5462
▁bei	-10.5473
eka	-10.5474
ೇ	-10.5475
nog	-10.5478
▁It	-10.5478
▁श	-10.5484
kọ	-10.5488
age	-10.5491
ут	-10.5493
cur	-10.5493
▁إ	-10.5494
▁ул	-10.5494
한	-10.5495
▁vol	-10.5497
▁eke	-10.5497
хэ	-10.5499
mh	-10.5499
▁mā	-10.5502
রা	-10.5503
iy	-10.5504
▁зы	-10.5505
▁eri	-10.5506
▁bes	-10.5508
wɔ	-10.551
tı	-10.551
dze	-10.5512
یی	-10.5513
cen	-10.5519
¤	-10.5519
•˜	-10.5519
gn	-10.552
▁ик	-10.552
▁Pan	-10.5521
bara	-10.5524
bas	-10.5525
▁mung	-10.5525
ማ	-10.5526
▁lí	-10.5529
▁Quechua	-10.5536
mmi	-10.5542
▁fɛ	-10.5544
▁Ia	-10.5544
tata	-10.5555
anan	-10.5555
ard	-10.5558
лин	-10.5558
▁das	-10.5559
टा	-10.5559
tari	-10.5561
▁gran	-10.5565
ⵖ	-10.5565
sqa	-10.5566
▁esta	-10.5567
انی	-10.5568
▁dó	-10.557
▁king	-10.5571
ای	-10.5572
వ	-10.5572
эл	-10.5573
swa	-10.5578
च्या	-10.5579
▁Por	-10.5582
▁Wan	-10.5584
▁col	-10.5585
▁кол	-10.5585
kwi	-10.5588
ⵢ	-10.5588
▁uru	-10.559
▁අ	-10.5591
도	-10.5594
▁Ben	-10.5594
▁зэ	-10.5602
tere	-10.5602
ɑɑ	-10.5602
zione	-10.5605
▁kukwe	-10.5609
gat	-10.5612
▁और	-10.5615
ք	-10.562
تي	-10.5623
gara	-10.5624
ظ	-10.5624
▁pahn	-10.5626
port	-10.5627
▁ez	-10.5627
▁oru	-10.5628
ད་	-10.5628
lja	-10.563
Ð	-10.5631
▁tik	-10.5632
lun	-10.5634
iye	-10.5635
инде	-10.5639
pla	-10.5644
kele	-10.5646
▁пол	-10.5652
rre	-10.5654
▁ܡ	-10.5655
tolo	-10.5656
▁dra	-10.5657
bir	-10.5659
ؤ	-10.566
▁Ку	-10.5661
kati	-10.5664
មាន	-10.5667
ndar	-10.5668
baa	-10.5668
ܫ	-10.5669
нов	-10.5673
כ	-10.5674
ळ	-10.5676
▁ele	-10.5676
▁moko	-10.5677
▁fel	-10.5678
▁kitchen	-10.5682
রি	-10.5682
▁lagi	-10.5684
▁tene	-10.5688
다	-10.5689
▁yin̈	-10.5693
▁bɨ	-10.5695
etik	-10.5695
▁Ко	-10.5697
хъу	-10.5702
vol	-10.5706
Ꮎ	-10.5706
▁main	-10.5706
▁twa	-10.5707
vad	-10.5708
▁щ	-10.5708
▁nje	-10.5711
nsa	-10.5714
▁pred	-10.5717
sini	-10.5718
▁parte	-10.5718
▁кон	-10.5719
▁wahn	-10.5725
έ	-10.5729
fia	-10.5729
▁nh	-10.573
कि	-10.5733
ակ	-10.5735
▁matu	-10.5738
uc	-10.5738
sika	-10.5743
లు	-10.5748
▁kak	-10.5749
wm	-10.5753
▁бай	-10.5755
sur	-10.5756
▁Mai	-10.5757
tɛ	-10.5759
kup	-10.577
bur	-10.5771
▁gong	-10.5771
▁alla	-10.5776
▁enye	-10.5779
▁bare	-10.5783
▁abo	-10.5784
▁ব	-10.5788
ín	-10.579
▁kuli	-10.5792
▁pili	-10.5794
wali	-10.5795
lala	-10.5796
▁ਨੂੰ	-10.5796
ሪ	-10.5797
▁And	-10.5798
를	-10.58
ട	-10.5801
▁suma	-10.5801
▁amb	-10.5803
kula	-10.5804
▁seg	-10.5805
▁vhu	-10.5809
nnen	-10.5809
▁Um	-10.581
эй	-10.5811
▁مو	-10.5811
▁akɛ	-10.5811
ህ	-10.5813
вр	-10.5815
▁Jan	-10.5818
Ñ	-10.5818
▁אין	-10.582
ls	-10.5824
ñi	-10.5826
сен	-10.5826
ତ	-10.5827
یم	-10.5834
टी	-10.5834
tica	-10.5837
esi	-10.5839
▁keu	-10.5841
ill	-10.5843
ⵍ	-10.5845
▁pru	-10.5846
▁दि	-10.5848
kir	-10.5849
▁más	-10.5851
ல்	-10.5857
င္	-10.586
sek	-10.586
jam	-10.5861
▁St	-10.5863
▁ק	-10.5867
▁ই	-10.5868
tama	-10.5868
ээ	-10.5872
ски	-10.5873
▁Ol	-10.5873
▁amma	-10.5882
▁že	-10.5888
ೂ	-10.5888
أ	-10.589
▁ແລະ	-10.5891
▁nui	-10.5892
рен	-10.5897
▁Fo	-10.5898
zhe	-10.5909
▁эт	-10.5914
stro	-10.5916
ಪ	-10.5919
▁وی	-10.592
Tu	-10.5921
بر	-10.5923
▁ಪ	-10.5923
ܦ	-10.5927
▁под	-10.5927
▁sc	-10.5927
τα	-10.5928
▁mpi	-10.593
▁india	-10.593
▁ome	-10.5931
▁haw	-10.5935
यो	-10.5936
ед	-10.5936
行	-10.5936
▁ich	-10.5937
pal	-10.5937
▁رو	-10.5939
▁via	-10.594
encia	-10.5942
نىڭ	-10.5943
ര്‍	-10.5944
ದ್	-10.5949
зар	-10.5949
▁кө	-10.595
▁kena	-10.5952
ጽ	-10.5955
▁пра	-10.5958
แ	-10.596
mali	-10.5963
kot	-10.5964
्या	-10.5964
rama	-10.5964
Õ	-10.5965
▁ò	-10.5966
eki	-10.5968
▁pur	-10.5969
ист	-10.597
lip	-10.5973
▁mig	-10.5975
▁gh	-10.5977
▁out	-10.5979
bba	-10.598
әр	-10.5981
ਣ	-10.5982
▁सि	-10.5984
▁Ç	-10.5985
į	-10.5987
▁Му	-10.5989
ա	-10.599
কে	-10.599
тин	-10.5992
▁ape	-10.5993
gana	-10.5995
аз	-10.5996
Ꮓ	-10.5997
▁esis	-10.5998
sima	-10.5999
▁rok	-10.6004
ие	-10.6004
▁chuan	-10.6004
nit	-10.6005
▁ᐱ	-10.6007
umi	-10.6008
hel	-10.6008
rad	-10.6008
ρα	-10.6009
уз	-10.6009
▁amɛ	-10.6013
ˬ-	-10.6013
ида	-10.6015
tee	-10.6016
ು	-10.6019
▁ক	-10.6019
tza	-10.602
яс	-10.6022
mula	-10.6024
mua	-10.6027
▁Yi	-10.6028
▁informa	-10.6029
▁tə	-10.6031
▁ibu	-10.6036
▁pr	-10.6039
än	-10.604
ל	-10.6041
లో	-10.6041
▁Paul	-10.6044
ܩ	-10.6044
kita	-10.6048
бе	-10.6052
▁ste	-10.6053
gbo	-10.6054
лек	-10.6055
ወ	-10.6055
▁ị	-10.6055
▁corner	-10.6057
▁Musa	-10.6057
▁Но	-10.6058
▁lati	-10.6061
kā	-10.6063
col	-10.6064
▁bya	-10.6068
йы	-10.6069
ר	-10.6071
гә	-10.6074
në	-10.6075
ني	-10.6076
▁бил	-10.6077
gli	-10.6078
paka	-10.6078
፣	-10.608
▁ade	-10.608
▁kwagh	-10.6081
nut	-10.6083
କୁ	-10.6084
rau	-10.6085
ക	-10.6088
▁Ал	-10.6089
ид	-10.6091
▁سر	-10.6091
▁neq	-10.6091
ő	-10.6094
▁kuri	-10.6094
रु	-10.6096
▁bro	-10.6096
ସ	-10.6098
▁Ɔ	-10.6098
bbi	-10.6099
ɔ́	-10.6101
▁ń	-10.6102
له	-10.6102
▁dau	-10.6104
****	-10.6107
по	-10.611
pol	-10.6111
▁لل	-10.6115
▁sí	-10.6116
▁އަ	-10.6116
▁hei	-10.6117
yuk	-10.6118
▁հ	-10.6119
pana	-10.6121
▁mɨ	-10.6122
▁nuna	-10.6122
▁ਦੀ	-10.6125
▁फ	-10.613
▁entre	-10.6131
tiva	-10.6132
▁ра	-10.6133
▁sch	-10.6134
分	-10.6134
ⵔ	-10.6136
▁koji	-10.6136
tuu	-10.6141
кен	-10.6149
ᓇ	-10.6149
▁kre	-10.6151
jë	-10.6154
▁tata	-10.6154
τε	-10.6157
ኣ	-10.6158
ၢ	-10.6159
▁Те	-10.616
kov	-10.616
▁Th	-10.6161
ғы	-10.6164
ува	-10.6164
shin	-10.6169
bila	-10.6169
ада	-10.617
▁bez	-10.6171
ⴻ	-10.6182
▁Home	-10.6183
.»	-10.6183
▁langa	-10.6184
▁بۆ	-10.6184
▁uri	-10.6185
vor	-10.6188
▁qua	-10.6188
▁bantu	-10.6191
cul	-10.6191
േ	-10.6194
pati	-10.6194
ប្រ	-10.6194
▁tú	-10.6197
▁ᎾᏍᎩ	-10.6199
▁স	-10.62
doo	-10.6203
зо	-10.6204
▁epi	-10.6205
我	-10.6207
jal	-10.6209
.​—	-10.6209
▁ᐅ	-10.621
▁ow	-10.6213
ী	-10.6214
lwe	-10.6214
far	-10.6216
کی	-10.6217
bay	-10.6219
▁kota	-10.622
ngwa	-10.6229
▁cre	-10.6232
chun	-10.6233
rti	-10.6234
छ	-10.6239
لى	-10.6241
tə	-10.6247
▁ñu	-10.6248
nↄ	-10.625
dek	-10.6252
▁akka	-10.6255
ů	-10.6255
க்க	-10.6255
▁ong	-10.6255
ẹ̌	-10.6256
સ	-10.6261
lha	-10.6261
gira	-10.6261
▁تي	-10.6262
ُ	-10.6269
္	-10.627
▁kudi	-10.6271
ҡ	-10.6271
▁bal	-10.6275
▁bena	-10.6276
▁غ	-10.6276
▁হ	-10.6279
pit	-10.6279
öl	-10.6283
ffi	-10.6287
ꞌi	-10.6293
▁Са	-10.6293
▁lako	-10.6297
bá	-10.6298
អ	-10.6302
த	-10.6304
▁peu	-10.6304
▁ᐃ	-10.6307
ugu	-10.6312
ens	-10.6314
▁moto	-10.6317
لار	-10.6319
▁mati	-10.6322
tit	-10.6323
det	-10.6324
hé	-10.6324
huan	-10.6327
ከ	-10.633
OS	-10.6333
Л	-10.6334
▁ebnaj	-10.6334
▁вер	-10.634
ڠ	-10.6344
llan	-10.6349
sz	-10.6351
ple	-10.6354
▁Chinese	-10.6357
新	-10.6358
iji	-10.6361
бан	-10.6362
bak	-10.6369
bed	-10.6372
▁ér	-10.6373
า	-10.6373
▁tao	-10.6374
▁tuh	-10.6375
▁khe	-10.6376
▁owo	-10.6381
yer	-10.6381
ന	-10.6382
ष	-10.6382
bwa	-10.6383
ته	-10.6386
▁με	-10.6389
bb	-10.6391
▁את	-10.6394
rok	-10.6394
ବ	-10.6395
်	-10.6396
କ	-10.6396
▁meg	-10.64
▁Ngu	-10.6401
ቅ	-10.6402
ларын	-10.6405
▁ngaahi	-10.6405
্য	-10.6407
ᒪ	-10.6408
▁###	-10.6409
toj	-10.6409
▁кы	-10.6412
зь	-10.6412
fel	-10.6415
će	-10.6415
aha	-10.6417
▁İ	-10.6417
´	-10.6418
ੋ	-10.6425
▁कु	-10.6427
▁My	-10.6427
भ	-10.6428
▁tom	-10.643
▁ñe	-10.6431
zza	-10.6432
▁anna	-10.6432
mej	-10.6435
влӓ	-10.6436
tut	-10.644
▁bilang	-10.644
rm	-10.6447
dz	-10.6448
འ	-10.6449
▁bre	-10.6452
gor	-10.6454
▁ē	-10.6455
ڻ	-10.6456
ո	-10.6456
ܚ	-10.6457
gos	-10.6458
dika	-10.6459
ព	-10.6461
▁ìž	-10.6462
▁တၢ်	-10.6462
tru	-10.6463
lisa	-10.6463
▁ate	-10.6464
ሊ	-10.6465
▁eye	-10.6467
уб	-10.6468
icha	-10.647
је	-10.6471
▁mbu	-10.6473
tul	-10.6473
quin	-10.6473
▁איז	-10.6474
▁Ter	-10.6475
ս	-10.6475
nica	-10.6477
▁boro	-10.6486
گە	-10.6487
enda	-10.6487
pos	-10.6489
lima	-10.649
ာ	-10.6491
vai	-10.6491
▁Да	-10.6491
ně	-10.6491
ची	-10.6495
rima	-10.6497
▁nyo	-10.6497
▁tx	-10.6498
▁ара	-10.6499
▁mali	-10.65
▁bila	-10.65
adu	-10.6508
rta	-10.6509
nata	-10.6511
▁tɔ	-10.6511
taki	-10.6513
▁kuru	-10.6515
kli	-10.6515
▁ƒe	-10.6518
▁һәм	-10.6519
फ	-10.652
teng	-10.6522
yoo	-10.6524
сти	-10.6525
▁sëmbë	-10.6526
▁hte	-10.6527
▁تے	-10.653
▁xchi	-10.653
ც	-10.6533
gs	-10.6534
ീ	-10.6534
▁use	-10.6534
▁len	-10.6534
vie	-10.6537
قا	-10.6538
▁ס	-10.6538
▁rura	-10.6539
▁bli	-10.6541
▁MA	-10.6544
Э	-10.6548
sí	-10.6548
▁дӓ	-10.655
▁gwa	-10.6551
ni̱	-10.6554
▁zvi	-10.6554
яр	-10.6557
▁пар	-10.6558
▁Kristo	-10.6558
ན	-10.6561
ਪ	-10.6567
▁Mas	-10.6574
▁ago	-10.6574
▁mbo	-10.6575
▁nian	-10.6575
▁ker	-10.6576
▁PM	-10.6579
ຊ	-10.6579
▁sila	-10.6583
бар	-10.6588
अ	-10.6588
▁cam	-10.6593
▁izi	-10.6594
লি	-10.6594
cor	-10.66
បាន	-10.6601
ୀ	-10.6602
ټ	-10.6603
▁put	-10.6605
▁lal	-10.6606
dua	-10.6608
ígíí	-10.6609
ζ	-10.661
laki	-10.661
жы	-10.661
Ã	-10.661
▁ماشین	-10.6611
▁cua	-10.6611
bile	-10.6613
manga	-10.6615
ľ	-10.6616
हि	-10.6617
▁aap	-10.6623
▁dị	-10.6624
▁poy	-10.6628
kko	-10.6629
рат	-10.6635
~	-10.6638
▁cara	-10.6638
pt	-10.664
vr	-10.664
ໃນ	-10.6641
▁dui	-10.6642
So	-10.6642
▁kɨ	-10.6644
▁swa	-10.6645
▁tong	-10.6646
▁kr	-10.6648
ကျ	-10.6648
эт	-10.6652
▁Ac	-10.6652
▁eno	-10.6654
ທ	-10.6654
ች	-10.6655
می	-10.666
ssen	-10.666
ӓ	-10.6661
ota	-10.6663
ән	-10.6663
▁oa	-10.6668
গ	-10.6672
dje	-10.6673
▁sas	-10.6673
Ꭿ	-10.6676
ast	-10.6676
▁дә	-10.6678
ppi	-10.6681
lü	-10.6683
زی	-10.6684
▁zhe	-10.6686
▁seo	-10.6686
▁hat	-10.6687
▁Не	-10.6688
çon	-10.669
▁სა	-10.6691
сн	-10.6692
sit	-10.6693
ත	-10.6694
ⴰⵜ	-10.6695
▁Pra	-10.6696
▁tum	-10.6696
▁ак	-10.6698
▁sab	-10.6703
kpa	-10.6709
▁maw	-10.6709
dɛ	-10.6709
▁gy	-10.671
khala	-10.6711
кт	-10.6711
▁syn	-10.6713
wɛ	-10.6719
cat	-10.672
kisa	-10.6723
▁dire	-10.6725
ात	-10.6725
ካ	-10.6726
یر	-10.6728
▁save	-10.673
uro	-10.673
▁så	-10.6731
▁malu	-10.6731
hs	-10.6736
▁Bab	-10.674
kem	-10.6742
тир	-10.6744
▁aune	-10.6747
sap	-10.6747
rè	-10.6751
ܒ	-10.6752
▁dr	-10.6753
Po	-10.6753
raj	-10.6753
nost	-10.6753
muni	-10.6754
จ	-10.6755
▁था	-10.6758
कर	-10.6759
mbang	-10.6761
▁mail	-10.6766
▁hla	-10.6767
स्	-10.677
ghi	-10.6771
lic	-10.6773
▁diat	-10.6779
▁indi	-10.6779
▁toj	-10.678
nsi	-10.678
nze	-10.6783
子	-10.6784
her	-10.6787
▁kung	-10.6788
▁Tur	-10.679
▁và	-10.6791
▁Paulo	-10.6795
eve	-10.6796
▁أن	-10.6798
dus	-10.6799
▁Ú	-10.6799
▁lung	-10.6801
▁pero	-10.6801
ох	-10.6803
нен	-10.6803
iwa	-10.6803
rada	-10.6805
pag	-10.6807
▁бы	-10.6807
▁Os	-10.6808
▁eka	-10.6808
▁Pero	-10.681
▁did	-10.6815
kini	-10.6815
▁lama	-10.6817
ɛ́	-10.6818
▁deg	-10.6819
▁ix	-10.6819
лт	-10.6823
tif	-10.6824
át	-10.6825
kaw	-10.6827
Ꮕ	-10.6831
▁bakal	-10.6831
▁katu	-10.6832
ndé	-10.6834
▁Kar	-10.6837
▁বি	-10.6837
ndan	-10.6837
maya	-10.6837
dol	-10.6838
too	-10.6839
sua	-10.6845
sara	-10.6848
sio	-10.6849
▁Nan	-10.6849
লা	-10.685
gö	-10.6852
▁ev	-10.6855
▁ды	-10.6858
▁mina	-10.686
▁enggau	-10.686
som	-10.6864
לי	-10.6867
moni	-10.6869
nosti	-10.6869
▁mere	-10.6873
▁Jerusalem	-10.6874
oso	-10.6874
Ra	-10.6874
bis	-10.6875
funa	-10.6878
ⵎ	-10.688
olu	-10.6881
▁મ	-10.6881
த்த	-10.6885
▁जि	-10.6887
▁bru	-10.6887
▁cũai	-10.6887
уэ	-10.689
nanga	-10.6892
ità	-10.6897
ره	-10.6905
හ	-10.6908
dii	-10.691
tü	-10.691
jil	-10.6915
▁dagiti	-10.6915
ۇ	-10.6923
▁tawh	-10.6923
хьа	-10.6924
all	-10.6928
▁aja	-10.693
▁kede	-10.6936
abu	-10.6936
buk	-10.6937
unga	-10.6937
ҫ	-10.6939
ស្	-10.6942
▁ने	-10.6942
ական	-10.6944
wie	-10.6952
त्र	-10.6953
▁agali	-10.6953
▁satu	-10.6953
won	-10.6954
ᓐ	-10.6957
ി	-10.6957
ၸ	-10.6958
ө	-10.6959
awai	-10.6959
tini	-10.696
▁like	-10.6961
ᓱ	-10.6961
эх	-10.6966
▁Got	-10.6966
▁tim	-10.6966
تو	-10.6966
kl	-10.6967
▁oma	-10.6968
ных	-10.6972
ەت	-10.6972
្	-10.6972
ndre	-10.6973
rā	-10.6973
지	-10.6973
rga	-10.6974
▁मु	-10.6977
èt	-10.6977
ன	-10.6978
▁program	-10.6979
ła	-10.698
ώ	-10.6981
ɨm	-10.6982
йин	-10.6986
ени	-10.6988
▁mais	-10.6988
▁Ny	-10.6989
liga	-10.699
Ꮫ	-10.6991
▁jini	-10.6991
دو	-10.6991
▁sida	-10.6994
وو	-10.6998
tala	-10.6999
▁ⴰⴷ	-10.6999
llen	-10.7002
ዝ	-10.7003
eva	-10.7003
ເ	-10.7003
▁had	-10.7004
ய	-10.7005
▁polo	-10.7005
nggo	-10.7006
▁kolo	-10.7007
নে	-10.7007
多	-10.7008
die	-10.7009
rë	-10.7009
▁bari	-10.7014
ación	-10.7015
▁Mana	-10.7018
ير	-10.702
क्ष	-10.7021
وان	-10.7022
هم	-10.7023
rup	-10.7024
lau	-10.7025
anti	-10.7026
▁ik	-10.7026
▁तर	-10.7026
▁Eli	-10.7027
ér	-10.7028
нер	-10.7032
作	-10.7033
тне	-10.7033
ಡ	-10.7037
ία	-10.7039
ံ	-10.7041
Latn	-10.7045
jí	-10.7046
▁dans	-10.7046
үү	-10.7047
▁pale	-10.7048
క	-10.7049
ટ	-10.705
like	-10.705
mä	-10.705
ꞌe	-10.705
ego	-10.705
يو	-10.7052
idade	-10.7053
▁ж	-10.7054
▁than	-10.7054
liya	-10.7055
һа	-10.7057
▁dät	-10.7057
kut	-10.7059
ལ	-10.7061
▁naga	-10.7063
▁pie	-10.7064
maj	-10.7064
▁woo	-10.7065
▁mande	-10.7066
▁Mac	-10.7069
▁ito	-10.7071
▁الع	-10.7072
ल्या	-10.7073
▁jie	-10.7075
mut	-10.7077
▁April	-10.7077
kuwa	-10.7078
▁ú	-10.708
rong	-10.7081
bolo	-10.7083
은	-10.7085
uz	-10.7086
rī	-10.7087
င်း	-10.7087
▁too	-10.7087
▁kou	-10.7089
jum	-10.7089
▁баш	-10.7093
▁Yuda	-10.7095
▁maq	-10.7097
sama	-10.7101
▁бе	-10.7102
lika	-10.7102
nɔ	-10.7102
下	-10.7103
uf	-10.7104
ной	-10.7105
▁Ay	-10.7108
ܛ	-10.711
▁yam	-10.7112
▁dabe	-10.7112
יק	-10.7114
ів	-10.7115
уш	-10.7117
▁Ар	-10.7117
成	-10.7121
▁lwa	-10.7123
▁ම	-10.7125
has	-10.7128
▁মা	-10.7129
ໄດ້	-10.7134
▁eme	-10.7135
taq	-10.7135
ÛŒ	-10.7135
▁लोग	-10.7136
ture	-10.7137
ા	-10.7138
▁pii	-10.7138
ⴰⵔ	-10.714
dala	-10.7143
ೀ	-10.7143
saka	-10.7144
бер	-10.715
▁Ва	-10.7151
▁juq	-10.7154
▁stra	-10.7156
ຫ	-10.7156
नो	-10.7157
▁Nor	-10.7158
▁sau	-10.716
stre	-10.7161
Pi	-10.7162
▁trans	-10.7164
дай	-10.7166
̂	-10.717
ɖe	-10.717
khat	-10.7171
િ	-10.7172
▁ey	-10.7172
▁ப	-10.7172
▁wata	-10.7174
leka	-10.7175
pac	-10.7177
▁napa	-10.7178
tela	-10.7178
ǵa	-10.718
pä	-10.7182
ី	-10.7183
bes	-10.7185
ade	-10.7189
▁shang	-10.7189
▁leti	-10.7198
lə	-10.7199
ју	-10.7199
▁wak	-10.7201
▁biti	-10.7202
天	-10.7203
▁kit	-10.7203
▁хар	-10.7204
▁kaya	-10.7208
▁ngoku	-10.7209
dag	-10.7211
▁ස	-10.7211
ෙ	-10.7212
ंग	-10.7213
ơ	-10.7214
ɛ̀	-10.7215
ဘ	-10.7216
▁ii	-10.7216
nyu	-10.722
▁मन	-10.7221
гі	-10.7223
sso	-10.7233
pek	-10.7233
enza	-10.7237
limo	-10.7238
inde	-10.7241
ον	-10.7242
▁ಉ	-10.7243
ъёс	-10.7245
▁Yezu	-10.7245
ӗ	-10.7249
▁မ	-10.7249
uku	-10.725
ziun	-10.7251
▁Tan	-10.7251
▁chì	-10.7251
টি	-10.7254
▁tor	-10.7255
▁yaka	-10.7256
▁kle	-10.7257
ву	-10.726
▁hak	-10.726
«	-10.7261
▁NA	-10.7262
▁То	-10.7262
main	-10.7262
चे	-10.7264
haw	-10.7264
▁hita	-10.7265
oto	-10.7265
ці	-10.7267
нә	-10.727
αν	-10.7271
lɔ	-10.7272
lega	-10.7272
ೆ	-10.7272
▁ур	-10.7275
▁эс	-10.7276
णा	-10.7276
어	-10.7278
ਦ	-10.7281
ဖ	-10.7283
▁has	-10.7283
▁Chin	-10.7283
law	-10.7286
▁भी	-10.7287
eda	-10.7288
▁بال	-10.7288
▁nuk	-10.7292
▁سي	-10.7293
oi	-10.7294
lor	-10.7294
▁Samuel	-10.7295
mir	-10.7297
▁law	-10.7298
家	-10.7301
ḡa	-10.7302
jat	-10.7302
dwa	-10.7305
зу	-10.7305
▁toko	-10.7306
ܗ	-10.7308
ட	-10.731
▁kore	-10.7312
国	-10.7312
▁angka	-10.7315
▁mula	-10.7315
кин	-10.7316
▁پا	-10.7317
▁tano	-10.7319
▁Val	-10.732
ää	-10.7321
ဥ	-10.7324
añ	-10.7324
▁molo	-10.7326
▁गे	-10.7327
▁gro	-10.7328
ሩ	-10.7329
▁any	-10.733
ເປັນ	-10.7331
uga	-10.7333
وت	-10.7334
pada	-10.7334
sir	-10.7335
Ш	-10.7335
▁yandi	-10.7336
?’	-10.7336
وی	-10.734
▁achi	-10.7341
▁йыл	-10.7344
yd	-10.7344
mọ	-10.7344
yel	-10.7345
▁luk	-10.7345
ых	-10.7346
▁bie	-10.7348
▁kó	-10.7351
▁aq	-10.7352
ස	-10.7356
ło	-10.7356
من	-10.7358
ड़	-10.7359
ގައި	-10.736
ု	-10.7361
ɛlɛ	-10.7362
ith	-10.7363
▁fal	-10.7363
ನೆ	-10.7364
ismo	-10.7365
ase	-10.7368
▁ní	-10.7369
ल्	-10.7369
सि	-10.7371
り	-10.7372
ರೆ	-10.7374
▁baru	-10.7374
▁km	-10.7374
▁News	-10.7375
▁kɑ	-10.7376
დ	-10.7376
▁base	-10.7379
▁bur	-10.738
já	-10.738
▁республика	-10.7381
▁hene	-10.7381
खा	-10.7385
gir	-10.7387
pay	-10.7389
ert	-10.7389
▁She	-10.739
گر	-10.7393
nı	-10.7394
▁vor	-10.7399
▁juga	-10.74
dí	-10.7401
ǝ	-10.7406
ຕ	-10.7408
▁қа	-10.7409
eto	-10.741
▁är	-10.7411
vent	-10.7414
اق	-10.7416
sed	-10.7417
gl	-10.7422
ុ	-10.7425
rel	-10.7427
▁kut	-10.7428
wè	-10.7429
rdi	-10.743
▁fre	-10.743
kile	-10.7431
▁spe	-10.7431
▁bere	-10.7432
वर	-10.7433
lee	-10.7433
inta	-10.7436
®	-10.7436
@	-10.7437
▁runa	-10.7439
ປ	-10.7439
▁ica	-10.7441
ľa	-10.7443
кь	-10.7443
Pe	-10.7444
bot	-10.7445
ช	-10.7446
pus	-10.7447
sas	-10.745
▁né	-10.745
▁punika	-10.7451
ија	-10.7455
eti	-10.7456
hlo	-10.7458
▁pon	-10.7458
sco	-10.7459
▁War	-10.7461
kes	-10.7462
▁بي	-10.7463
▁xwe	-10.7465
ដ	-10.7467
nca	-10.7468
▁kra	-10.7469
▁shì	-10.747
▁τοῦ	-10.7471
▁kalo	-10.7474
ура	-10.7477
▁andre	-10.7477
为	-10.7479
▁tutu	-10.748
rqa	-10.7481
▁toh	-10.7481
▁Sal	-10.7482
▁ach	-10.7487
▁ndị	-10.7489
▁taw	-10.749
gge	-10.7491
▁hou	-10.7492
şa	-10.7492
zé	-10.7492
vit	-10.7493
ayo	-10.7495
badi	-10.7497
ܣ	-10.7497
▁nü	-10.7498
▁foar	-10.7499
alla	-10.7499
ți	-10.75
▁ئە	-10.7504
WA	-10.7509
laa	-10.7512
нинг	-10.7512
▁kahi	-10.7513
cik	-10.7513
ून	-10.7513
ੱ	-10.7515
▁ngak	-10.7516
rey	-10.7517
iku	-10.7517
naka	-10.7518
çi	-10.7519
wun	-10.7519
tiya	-10.752
로	-10.7521
ڽ	-10.7521
▁yul	-10.7522
ೊ	-10.7523
ា	-10.7523
әт	-10.7524
സ	-10.7526
ژ	-10.7527
▁part	-10.7527
▁Det	-10.7529
▁tia	-10.753
▁fen	-10.7532
nun	-10.7533
chel	-10.7533
ché	-10.7533
▁latou	-10.7537
há	-10.7537
და	-10.7538
rina	-10.754
▁koj	-10.754
Ca	-10.7542
kuru	-10.7543
▁COVID	-10.7544
!"	-10.7545
dä	-10.7546
ук	-10.7546
પ	-10.7547
Ä	-10.7548
物	-10.7551
▁ਅਤੇ	-10.7552
mong	-10.7555
▁neng	-10.7558
▁Ме	-10.7559
lya	-10.7559
▁Sara	-10.7559
god	-10.7559
▁സ	-10.756
기	-10.756
▁ole	-10.7562
gine	-10.7563
uki	-10.7566
ិ	-10.7568
pur	-10.7571
ತಿ	-10.7572
▁ил	-10.7572
▁ὁ	-10.7573
▁gata	-10.7573
эз	-10.7576
▁Ste	-10.7577
मि	-10.758
▁rej	-10.7583
eren	-10.7584
Ye	-10.7591
▁samo	-10.7592
▁Ah	-10.7593
▁ñan	-10.7593
▁نو	-10.7594
ා	-10.7596
▁karnataka	-10.7597
▁נ	-10.7598
ມີ	-10.7599
▁John	-10.7599
وب	-10.76
джы	-10.7604
য়া	-10.7605
ٽ	-10.7605
▁voor	-10.7606
▁alu	-10.7607
▁iko	-10.7608
ᓂᒃ	-10.7608
naa	-10.7609
ico	-10.7611
sul	-10.7614
یک	-10.7614
daa	-10.7618
▁kisi	-10.7618
سي	-10.7621
omo	-10.7624
▁buat	-10.7624
์	-10.7625
▁Can	-10.7627
они	-10.7627
Ɛ	-10.7628
▁që	-10.7628
▁alli	-10.7629
ив	-10.7629
དང་	-10.7629
IS	-10.763
uda	-10.7631
zya	-10.7633
ады	-10.7635
bana	-10.764
▁taga	-10.7641
ian	-10.7641
▁koko	-10.7643
гд	-10.7643
▁अस	-10.7644
‹ˆ	-10.7647
▁ïa	-10.7648
▁modern	-10.7649
ái	-10.7652
ngana	-10.7653
▁gara	-10.7654
He	-10.7654
rua	-10.7656
ват	-10.7658
mena	-10.7666
▁כ	-10.7667
▁nahilalaki	-10.7667
▁tipa	-10.7668
vela	-10.767
дор	-10.7672
▁сал	-10.7673
▁sabi	-10.7676
▁mola	-10.7676
ыд	-10.7677
ged	-10.7677
▁door	-10.7678
qqa	-10.7678
ним	-10.7679
▁famili	-10.7679
ہٕ	-10.7682
▁sung	-10.7686
mari	-10.7687
▁Xa	-10.7687
ران	-10.769
ön	-10.7697
꞉,	-10.7697
▁contra	-10.77
し	-10.7701
▁मो	-10.7703
ांत	-10.7705
▁вә	-10.7708
▁nai	-10.7708
▁bá	-10.771
▁க	-10.7714
bij	-10.7714
ී	-10.7715
khulu	-10.7715
ဝဲ	-10.7718
▁sada	-10.7721
rɨ	-10.7721
vir	-10.7722
tive	-10.7723
yal	-10.7724
▁plus	-10.7727
rere	-10.7728
क्‍	-10.773
ved	-10.7734
cc	-10.7735
▁malo	-10.7736
мин	-10.7736
高	-10.7736
ES	-10.7737
▁fram	-10.7737
▁mill	-10.7741
▁señas	-10.7742
▁sna	-10.7742
▁ubu	-10.7743
шо	-10.7744
дь	-10.7746
pli	-10.7746
▁آن	-10.775
cca	-10.7751
អ្នក	-10.7755
▁Gad	-10.7761
TA	-10.7763
▁gw	-10.7763
ити	-10.7764
▁geu	-10.7767
ར	-10.7769
mɨ	-10.777
▁lon	-10.777
▁tā	-10.7774
▁Op	-10.7776
▁Dis	-10.778
小	-10.7782
фт	-10.7783
tshi	-10.7784
کو	-10.7784
рг	-10.779
▁Ene	-10.779
▁god	-10.7792
শ	-10.7793
Ꮈ	-10.7796
ში	-10.7796
▁մ	-10.7799
ữ	-10.7801
▁nochi	-10.7805
▁تولید	-10.7806
ރަ	-10.7806
కు	-10.7806
▁य	-10.7807
ìŠ	-10.7811
▁dara	-10.7812
▁Nge	-10.7813
▁ши	-10.7815
Ɔ	-10.7815
▁खा	-10.7816
▁bili	-10.7817
▁roz	-10.7817
▁ክ	-10.7819
rg	-10.782
ár	-10.7821
தி	-10.7823
▁lasi	-10.7824
▁ਮ	-10.7828
▁ман	-10.7832
jek	-10.7837
nau	-10.7837
	-10.7838
▁fare	-10.7844
ಿ	-10.7846
▁libi	-10.7848
ូ	-10.7855
tab	-10.7856
зын	-10.7857
▁Ser	-10.7859
illa	-10.7861
rı	-10.7862
‹¤.	-10.7863
ⵓ	-10.7863
xon	-10.7865
Do	-10.7866
лет	-10.7866
▁чу	-10.7868
ъяс	-10.7868
▁një	-10.7869
గ	-10.7869
▁ו	-10.787
sty	-10.7873
▁mwe	-10.7875
▁meu	-10.7876
▁nǔ	-10.7876
br	-10.7877
▁ପ	-10.7878
ღ	-10.7878
ני	-10.7883
▁हलइ	-10.7885
كن	-10.7886
మ	-10.789
▁abal	-10.789
amba	-10.789
▁dungu	-10.7892
ಾ	-10.7894
▁Gra	-10.7895
kila	-10.7897
▁фа	-10.7898
א	-10.7898
▁gre	-10.7899
ੂ	-10.7899
▁sik	-10.7899
▁Ty	-10.79
▁bien	-10.7901
▁مر	-10.7903
ote	-10.7903
▁сай	-10.7904
▁της	-10.7907
kî	-10.7908
tle	-10.7908
taan	-10.7908
cz	-10.7909
ད	-10.7913
Lo	-10.7914
▁care	-10.7917
ᓄᑦ	-10.7917
পা	-10.7918
▁ṣe	-10.7918
▁kuna	-10.7918
▁Apa	-10.7919
▁yaw	-10.792
▁bey	-10.792
▁lak	-10.7921
▁reng	-10.7921
tuku	-10.7922
лыкъ	-10.7922
sut	-10.7925
▁jian	-10.7925
▁rin	-10.7928
τι	-10.7929
nima	-10.7932
▁xk	-10.7932
▁awe	-10.7933
▁mà	-10.7937
▁kuwa	-10.7939
▁~~~	-10.7941
▁ngeni	-10.7942
sü	-10.7944
▁გა	-10.7945
▁kö	-10.7954
иг	-10.7954
°€	-10.7955
▁iPhone	-10.7959
▁ἀ	-10.7959
form	-10.796
▁―	-10.796
来	-10.7961
▁Tri	-10.7963
ging	-10.7965
റ	-10.7965
▁Ek	-10.7967
▁Mat	-10.7967
વ	-10.797
isha	-10.797
အိၣ်	-10.7971
ነት	-10.7972
лам	-10.7975
ຮ	-10.7976
ർ	-10.7978
▁nte	-10.798
▁rehe	-10.798
▁rech	-10.7984
wọ	-10.7985
▁sò	-10.7986
▁nɨ	-10.7986
ו	-10.7987
▁sco	-10.7987
▁jia	-10.7988
гүй	-10.7989
▁mii	-10.799
▁bla	-10.7993
▁Moses	-10.7993
गी	-10.7993
▁inge	-10.7999
kta	-10.8005
qua	-10.8005
ਿ	-10.8006
ဖိ	-10.8007
▁umi	-10.8013
rami	-10.8013
bọ	-10.8013
өр	-10.8013
▁uska	-10.8015
▁dur	-10.8018
▁teh	-10.802
рам	-10.802
▁mma	-10.8023
▁Ag	-10.8025
प्र	-10.8028
ך	-10.803
тнень	-10.8031
মা	-10.8032
ರಾ	-10.8032
Bi	-10.8033
дон	-10.8034
」	-10.8036
Ꭺ	-10.8036
 ।	-10.8039
ᒋ	-10.804
▁guna	-10.8041
yor	-10.8042
ེ	-10.8047
end	-10.805
ြ	-10.805
rian	-10.805
ӯ	-10.8051
lil	-10.8053
bro	-10.8053
dri	-10.8054
shpa	-10.8057
▁wong	-10.8058
ence	-10.8058
kang	-10.8059
▁ár	-10.806
git	-10.8062
▁Son	-10.8064
▁или	-10.8066
▁мы	-10.8068
enge	-10.807
▁AM	-10.8071
malad	-10.8071
ẹ̌	-10.8071
▁pasi	-10.8072
▁ё	-10.8073
स्त	-10.8073
▁سال	-10.8074
▁sö	-10.8075
cs	-10.8075
▁okwa	-10.8078
ా	-10.8078
eji	-10.8079
ира	-10.8079
anda	-10.8083
ಲಿ	-10.8083
мет	-10.8085
vez	-10.8089
ъя	-10.8091
oe	-10.8092
▁asu	-10.8094
үн	-10.8097
އި	-10.8098
даа	-10.8101
шка	-10.8101
▁lin	-10.8102
wil	-10.8105
▁ul	-10.8105
ຈ	-10.8108
ông	-10.811
▁jix	-10.8116
▁ede	-10.8116
▁dira	-10.8118
yun	-10.8119
اب	-10.8121
ོ	-10.8125
kra	-10.8126
kina	-10.8128
ވާ	-10.8129
یں	-10.813
ܶܐ	-10.8131
▁servi	-10.8132
▁oda	-10.8133
aji	-10.8133
ુ	-10.8134
သး	-10.8134
ί	-10.8134
hit	-10.8135
▁tidak	-10.8137
ŋi	-10.8138
hor	-10.8139
nî	-10.8141
hani	-10.8142
hí	-10.8145
▁kont	-10.8146
дал	-10.8146
▁Im	-10.8146
▁vaan	-10.8147
▁ry	-10.8147
ư	-10.8149
bua	-10.8152
イ	-10.8153
▁tet	-10.8153
ash	-10.8154
ien	-10.8156
hod	-10.8157
ici	-10.8159
▁Ap	-10.8161
▁ɨ́	-10.8162
▁dou	-10.8162
vita	-10.8163
▁meng	-10.8165
▁ക	-10.8165
▁make	-10.8166
ση	-10.8166
▁basi	-10.8169
リ	-10.8174
▁हइ	-10.8177
çe	-10.8179
ป	-10.818
▁liye	-10.8181
ès	-10.8183
sad	-10.8183
▁abu	-10.8183
ias	-10.8184
tọ	-10.8184
)="	-10.8189
▁tuk	-10.819
ク	-10.8191
▁avan	-10.8194
▁eu	-10.8195
▁vit	-10.8197
▁dann	-10.8197
▁toi	-10.82
او	-10.8204
ود	-10.8204
▁މި	-10.8207
▁pros	-10.8209
دان	-10.821
ugh	-10.8211
oon	-10.8211
ord	-10.8211
tiv	-10.8212
▁‑	-10.8213
vara	-10.8215
▁èn	-10.8217
▁qual	-10.8218
hnak	-10.8218
▁boi	-10.8219
oom	-10.822
▁ska	-10.8223
idad	-10.8223
▁Iesu	-10.8225
bii	-10.8225
тон	-10.8226
мон	-10.8229
key	-10.8231
inne	-10.8235
▁wis	-10.8236
اع	-10.8241
ندا	-10.8245
▁уч	-10.8247
ök	-10.8248
会	-10.8248
rer	-10.825
▁species	-10.825
өө	-10.825
▁Kor	-10.8251
▁Мо	-10.8252
▁mapa	-10.8255
аў	-10.8256
bl	-10.8258
▁upp	-10.8258
لىق	-10.8264
ille	-10.8264
cle	-10.8266
ቱ	-10.8269
aran	-10.827
▁йо	-10.8275
tei	-10.8276
▁सो	-10.8278
RI	-10.8278
▁causa	-10.8279
angan	-10.8279
တိ	-10.8281
▁blo	-10.8281
лов	-10.8282
▁Jon	-10.8283
▁cri	-10.8283
▁tung	-10.8284
▁wɔn	-10.8285
▁גע	-10.8286
ृ	-10.8287
ài	-10.8291
க்	-10.8292
ał	-10.8292
स्य	-10.8292
▁Juda	-10.8293
assa	-10.8293
ӹн	-10.8296
品	-10.8298
రి	-10.8298
▁jẹ	-10.83
▁kul	-10.8301
▁sü	-10.8302
▁wau	-10.8303
▁σ	-10.8304
از	-10.8304
▁cin	-10.8306
▁이	-10.8306
nka	-10.8308
▁eto	-10.8308
nic	-10.8309
ᔪ	-10.831
IR	-10.8311
▁mahi	-10.8312
▁Daniel	-10.8314
jé	-10.8315
qar	-10.8316
▁nwo	-10.8316
ongo	-10.8318
тары	-10.8322
юн	-10.8323
tsy	-10.8323
▁sat	-10.8324
▁Mer	-10.8324
ⵉⵜ	-10.8325
রে	-10.8328
▁Ха	-10.8331
▁ting	-10.8331
ೋ	-10.8333
ebe	-10.8337
riki	-10.8337
▁uka	-10.8339
than	-10.834
iru	-10.834
ထီၣ်	-10.834
▁aria	-10.8341
የ	-10.8342
▁અ	-10.8343
▁для	-10.8346
▁կ	-10.8347
är	-10.8349
ᓗ	-10.8349
▁noh	-10.8349
ight	-10.835
اه	-10.8351
▁က	-10.8351
▁cas	-10.8352
տ	-10.8354
▁jala	-10.8354
▁دے	-10.8355
▁pena	-10.8356
▁रो	-10.8357
лери	-10.8357
ier	-10.8357
能	-10.8358
▁nn	-10.8361
yî	-10.8362
nner	-10.8362
awo	-10.8365
ம	-10.8366
▁kae	-10.8367
၀	-10.8369
ക്ക	-10.837
▁Gar	-10.837
▁atau	-10.8373
ႉ	-10.8374
ով	-10.8376
▁Ра	-10.8377
▁tas	-10.8377
лэн	-10.838
ܥ	-10.838
lea	-10.8382
ες	-10.8385
▁یک	-10.8386
ത്	-10.8386
▁của	-10.8387
ins	-10.8389
und	-10.8393
sku	-10.8396
وس	-10.8397
zvi	-10.8399
lih	-10.8401
▁dok	-10.8402
▁quan	-10.8402
cal	-10.8403
pil	-10.8404
roo	-10.8406
នេះ	-10.8407
▁tina	-10.8407
dau	-10.8407
▁ер	-10.8407
▁hk	-10.8408
▁ⴰ	-10.8409
mera	-10.841
▁adu	-10.8411
▁bela	-10.8413
▁Sh	-10.8413
▁lö	-10.8414
tud	-10.8416
▁nĩ	-10.8417
gá	-10.8417
and	-10.8417
fre	-10.842
nī	-10.8421
tiri	-10.8421
▁mera	-10.8423
lib	-10.8424
ake	-10.8425
▁kong	-10.8426
fika	-10.8427
AL	-10.8429
▁theih	-10.8429
▁kaha	-10.843
kla	-10.8432
ffe	-10.8432
ස්	-10.8436
▁seu	-10.8437
入	-10.8441
▁File	-10.8442
jas	-10.8443
vid	-10.8443
Su	-10.8445
▁tatou	-10.8446
ção	-10.8449
▁stu	-10.845
लाई	-10.845
▁bani	-10.845
▁Wal	-10.8454
cí	-10.8454
▁فر	-10.8456
▁অমসুং	-10.8457
▁DE	-10.8461
▁umui	-10.8462
▁कली	-10.8463
▁blog	-10.8463
ລ	-10.8464
یاں	-10.8466
▁स्व	-10.8467
º	-10.8469
kah	-10.8469
دٗ	-10.8469
ଲ	-10.8473
▁بو	-10.8475
▁pↄ́	-10.8475
эд	-10.8476
mate	-10.8477
ע	-10.8479
▁pad	-10.8479
як	-10.8481
▁pana	-10.8481
▁pele	-10.8481
तु	-10.8482
▁this	-10.8483
ance	-10.8486
▁ukuthi	-10.8487
cel	-10.8488
ან	-10.8489
▁khan	-10.8489
pad	-10.8491
laga	-10.8491
ু	-10.8493
▁beta	-10.8494
leke	-10.8494
indi	-10.8494
рес	-10.8499
▁akha	-10.8499
▁waku	-10.85
ение	-10.85
গা	-10.8501
▁Па	-10.8503
ཀྱི་	-10.8504
▁foto	-10.8504
▁chak	-10.8506
▁घ	-10.8506
▁Kha	-10.8507
paq	-10.8507
mona	-10.8508
▁raba	-10.851
ὰ	-10.8511
DI	-10.8511
èn	-10.8512
gne	-10.8515
jana	-10.8515
οι	-10.8516
kis	-10.8519
▁ਸ	-10.8519
▁yii	-10.852
▁poi	-10.852
▁top	-10.8521
▁ኢ	-10.8522
aŋ	-10.8522
▁τὸ	-10.8524
rir	-10.8525
▁best	-10.8525
kop	-10.8527
מ	-10.8527
▁Aw	-10.8529
мә	-10.8529
▁bij	-10.853
hulagway	-10.8532
▁imi	-10.8533
▁tsu	-10.8533
аа	-10.8535
პ	-10.8538
ubu	-10.8539
ão	-10.854
▁ܘ	-10.8546
▁kim	-10.8546
▁Yus	-10.8547
woo	-10.8547
▁ты	-10.8548
ža	-10.8548
▁Kĩ	-10.855
త	-10.8551
▁nöö	-10.8554
▁hel	-10.8555
yob	-10.8555
ked	-10.8556
rgi	-10.8556
נו	-10.8556
▁dag	-10.8557
▁Се	-10.8559
gri	-10.856
പ	-10.8561
ꨓ	-10.8561
лап	-10.8562
leni	-10.8563
oda	-10.8564
▁nahi	-10.8564
▁tö	-10.8565
юр	-10.8568
وز	-10.8569
▁Av	-10.8569
▁pol	-10.8573
▁ⵜⴰ	-10.8575
▁Бо	-10.8575
定	-10.8576
pura	-10.8577
চ	-10.8578
гэ	-10.858
▁lain	-10.8581
コ	-10.8583
▁jis	-10.8585
row	-10.8586
▁valley	-10.8587
̱n	-10.8588
리	-10.859
▁Yahudi	-10.859
yingo	-10.8591
liyo	-10.8594
▁fei	-10.8594
dara	-10.8594
▁ता	-10.8594
diya	-10.8594
▁zhu	-10.8597
▁kona	-10.86
मान	-10.8601
aꞌ	-10.8603
▁ம	-10.8604
▁awo	-10.8604
ӧд	-10.8605
▁Ban	-10.8606
▁fy	-10.8607
ҷ	-10.8608
fat	-10.861
ەی	-10.8613
რ	-10.8613
ەوە	-10.8614
▁way	-10.8614
本	-10.8615
▁Ut	-10.8619
чин	-10.8619
lde	-10.862
▁आनी	-10.862
▁tañi	-10.8621
▁hang	-10.8623
cas	-10.8626
агъ	-10.8626
▁την	-10.8627
тов	-10.8627
▁Txi	-10.8627
ⴳ	-10.8628
▁edia	-10.8629
sisi	-10.8629
▁bul	-10.863
ebé	-10.8631
▁web	-10.8632
▁им	-10.8632
▁nau	-10.8635
▁laa	-10.8637
bela	-10.8638
able	-10.8639
▁opera	-10.864
▁ҳам	-10.864
▁time	-10.8643
▁ये	-10.8644
шта	-10.8645
മ	-10.8645
dong	-10.8645
▁phu	-10.8649
▁wid	-10.8651
င္း	-10.8651
▁olketa	-10.8651
▁mot	-10.8652
▁kū	-10.8652
tane	-10.8652
IN	-10.8652
▁ص	-10.8654
ิ	-10.8654
yt	-10.8656
rish	-10.866
▁Kɛ	-10.866
nê	-10.866
ு	-10.8661
rr	-10.8661
▁eki	-10.8661
kazi	-10.8663
luh	-10.8663
rimu	-10.8664
ដែល	-10.8667
▁â	-10.8668
▁hor	-10.8669
▁genus	-10.867
▁hoe	-10.867
мал	-10.8674
wel	-10.8676
က္	-10.8677
▁cai	-10.8681
▁кыл	-10.8681
▁popo	-10.8681
▁کە	-10.8683
▁ም	-10.8683
▁mae	-10.8684
▁જ	-10.8687
▁muntu	-10.8688
πο	-10.8689
аны	-10.8689
▁word	-10.869
▁tara	-10.8692
rɔ	-10.8692
igu	-10.8693
▁dá	-10.8695
ܺܝ	-10.8696
��	-10.8696
ప	-10.8697
Ú	-10.8701
▁Ð	-10.8702
نت	-10.8702
mul	-10.8705
алар	-10.8707
▁ଅ	-10.8708
pel	-10.8708
▁daga	-10.8709
▁Moisés	-10.871
▁sor	-10.871
▁Jihova	-10.8711
▁stap	-10.8714
ٕ	-10.8716
▁Би	-10.8716
որ	-10.8716
ատ	-10.8718
Yo	-10.872
▁leswaku	-10.8722
शो	-10.8722
▁kawa	-10.8722
▁અને	-10.8722
pta	-10.8725
▁pus	-10.8726
▁als	-10.8727
▁nom	-10.8728
▁أو	-10.8733
gere	-10.8734
▁voi	-10.8734
kili	-10.8734
▁tapu	-10.8735
jn	-10.8735
▁sili	-10.8736
rab	-10.874
▁wia	-10.8741
▁sil	-10.8743
kak	-10.8743
mam	-10.8743
kiya	-10.8744
▁Les	-10.8747
▁ڪ	-10.8748
▁ən	-10.8748
থ	-10.8753
yag	-10.8758
zet	-10.8758
ary	-10.8759
▁mano	-10.8759
▁have	-10.876
▁тер	-10.8762
▁chun	-10.8767
▁Com	-10.8769
მა	-10.8772
▁dohot	-10.8773
лд	-10.8778
klu	-10.8778
ד	-10.8778
▁sá	-10.8781
pɨ	-10.8781
iden	-10.8783
ān	-10.8783
່	-10.8784
▁bɛɛ	-10.8784
გ	-10.8785
▁jak	-10.8786
ຄ	-10.8789
nat	-10.8791
ifi	-10.8791
ી	-10.8792
ၽ	-10.8795
longa	-10.8797
вет	-10.8798
elle	-10.8798
kada	-10.8799
ዚ	-10.8801
‰	-10.8801
ула	-10.8802
▁më	-10.8803
▁ध	-10.8804
uva	-10.8804
ехь	-10.8804
▁rela	-10.8805
▁noko	-10.8805
פ	-10.8806
imo	-10.8806
▁udah	-10.8808
法	-10.8808
য়	-10.8809
cije	-10.8812
▁China	-10.8814
▁sz	-10.8815
nɩ	-10.8818
▁kumu	-10.8821
cam	-10.8822
▁த	-10.8825
▁Iz	-10.883
▁थ	-10.883
▁για	-10.8833
leb	-10.8833
lunga	-10.8833
▁tali	-10.8836
▁bê	-10.8836
ကြ	-10.8837
▁dokona	-10.8839
uwa	-10.884
▁India	-10.884
ath	-10.8841
ᓪᓗ	-10.8842
▁gid	-10.8844
▁hè	-10.8847
ာ်	-10.8847
bey	-10.8848
nten	-10.8848
جا	-10.885
muna	-10.8851
uw	-10.8853
▁kuko	-10.8854
ণ	-10.8854
با	-10.8855
λα	-10.8855
kole	-10.8858
▁деген	-10.8859
▁bè	-10.8864
unt	-10.8866
ూ	-10.8867
▁Google	-10.8869
اً	-10.8869
▁ngon	-10.887
лари	-10.887
▁ä	-10.8871
rov	-10.8871
ዎ	-10.8873
នៅ	-10.8873
yol	-10.888
կ	-10.8886
▁auto	-10.8887
фи	-10.8889
koi	-10.8891
ୋ	-10.8892
▁বা	-10.8893
▁gare	-10.8893
යි	-10.8897
▁Pas	-10.89
▁Cho	-10.8901
▁مح	-10.8903
yik	-10.8907
ଳ	-10.8907
▁dali	-10.8907
▁α	-10.8908
▁twn	-10.8908
ikan	-10.8908
▁hauv	-10.8909
ᔭ	-10.8912
ဲ	-10.8912
▁kad	-10.8912
raz	-10.8912
lich	-10.8913
xt	-10.8914
аар	-10.8914
▁bula	-10.8914
ция	-10.8914
ტ	-10.8914
▁bene	-10.8915
оп	-10.8916
▁ode	-10.8916
▁pagka	-10.8917
▁Mari	-10.8918
▁biz	-10.892
hondo	-10.8921
▁qhov	-10.8922
▁ebi	-10.8923
іс	-10.8924
ари	-10.8926
stal	-10.8929
တ္	-10.8929
▁vis	-10.893
▁wax	-10.8931
وي	-10.8931
ishi	-10.8932
༔	-10.8933
▁bali	-10.8934
▁qab	-10.8935
▁loko	-10.8936
ನಿ	-10.8939
Je	-10.8942
gola	-10.8943
ಗ್	-10.8943
▁sika	-10.8943
pul	-10.8944
bula	-10.8947
walo	-10.8948
moo	-10.8949
▁shen	-10.895
ွ	-10.8952
ستان	-10.8952
ග	-10.8953
▁dh	-10.8953
tii	-10.8955
Ꮑ	-10.8955
▁tie	-10.8956
nana	-10.8956
tonga	-10.8956
જ	-10.8958
rna	-10.8958
▁мә	-10.8958
Á	-10.8959
గా	-10.8959
EL	-10.896
▁howa	-10.896
ét	-10.896
vil	-10.8961
▁тә	-10.8962
▁pani	-10.8962
▁yacha	-10.8964
▁Kwa	-10.8965
▁super	-10.8966
պ	-10.8966
rita	-10.8967
̷	-10.8969
တာ	-10.8969
u̷	-10.897
▁rey	-10.897
odi	-10.8972
တဖၣ်	-10.8974
тал	-10.8974
šu	-10.8974
शी	-10.8975
ڕ	-10.8977
asyon	-10.8977
▁obu	-10.8977
▁പ	-10.8978
৷	-10.8978
▁under	-10.8982
‹¤	-10.8986
кар	-10.899
ⴰⵍ	-10.899
І	-10.8991
▁हि	-10.8991
▁चा	-10.8992
▁الح	-10.8996
▁так	-10.8997
ού	-10.8998
▁ble	-10.8999
▁ווי	-10.9
▁anjo	-10.9001
polo	-10.9005
णी	-10.9005
▁kw	-10.9005
oz	-10.9005
▁muaj	-10.9007
▁ଆ	-10.9011
šo	-10.9013
avi	-10.9013
▁mǐ	-10.9013
ႁ	-10.9014
▁kole	-10.9014
▁ഇ	-10.9016
rö	-10.9017
▁yã	-10.9025
chem	-10.9028
▁bag	-10.9031
ive	-10.9034
tî	-10.9037
το	-10.9038
▁pul	-10.9039
▁pɩ	-10.904
要	-10.904
▁Pathian	-10.9041
сты	-10.9041
ପ	-10.9041
рал	-10.9046
ප	-10.9046
ddu	-10.9046
liki	-10.9046
▁sul	-10.9049
▁kẹ	-10.905
¥	-10.9053
▁Posted	-10.9055
▁interes	-10.9055
▁हैं	-10.9056
▁бас	-10.9057
か	-10.9058
qq	-10.906
ctor	-10.9062
ဆို	-10.9062
εί	-10.9064
▁kol	-10.9066
مي	-10.9069
▁tale	-10.9069
▁жи	-10.9071
▁Paulus	-10.9073
▁nav	-10.9073
ques	-10.9074
▁lolo	-10.9075
langan	-10.9075
İ	-10.9076
ნ	-10.9077
▁zài	-10.908
ξ	-10.908
ائ	-10.9081
▁avek	-10.9081
ಹ	-10.9083
ܳ	-10.9083
▁gun	-10.9083
得	-10.9086
▁kalak	-10.9086
نس	-10.909
saya	-10.909
OR	-10.9092
анда	-10.9093
ties	-10.9093
�´	-10.9096
ain	-10.9098
▁abe	-10.9101
▁mane	-10.9102
वी	-10.9103
Chi	-10.9103
▁terus	-10.9105
เ	-10.9107
են	-10.9107
ɨ́	-10.9107
sah	-10.9108
гай	-10.911
▁Saul	-10.9113
也	-10.9115
▁fee	-10.9116
rú	-10.9117
▁sb	-10.9118
ары	-10.9118
▁mare	-10.9119
ūs	-10.9119
dá	-10.9119
▁naan	-10.9119
▁Gadu	-10.9121
င	-10.9122
рет	-10.9123
▁kura	-10.9124
chea	-10.9125
來	-10.9126
оз	-10.9126
▁mao	-10.9127
▁Ан	-10.9127
enti	-10.9128
rut	-10.9129
où	-10.9129
hong	-10.9129
▁Ә	-10.9129
▁tut	-10.9132
ડ	-10.9135
▁suka	-10.9136
nej	-10.9136
▁нь	-10.9138
tyn	-10.9138
िया	-10.914
Bu	-10.9141
ée	-10.9143
ଣ	-10.9143
ming	-10.9146
ونو	-10.9147
ред	-10.915
ologi	-10.9151
▁ino	-10.9153
▁Yahova	-10.9157
▁Van	-10.9161
▁τὴν	-10.9162
ًا	-10.9162
tap	-10.9164
prav	-10.9164
gus	-10.9165
ປະ	-10.9166
▁ג	-10.9167
▁пи	-10.9167
kari	-10.9168
ство	-10.9169
sung	-10.917
▁eller	-10.917
▁jaw	-10.9171
▁person	-10.9171
йн	-10.9171
▁ә	-10.9172
▁osi	-10.9174
▁<	-10.9174
өн	-10.9174
burg	-10.9177
▁آپ	-10.9178
▁Qui	-10.9179
akan	-10.9185
▁Gusti	-10.9186
iste	-10.9188
マ	-10.9189
мын	-10.9192
វ	-10.9193
اج	-10.9193
▁rogo	-10.9193
▁thaj	-10.9194
ุ	-10.9198
ör	-10.9199
ᓴ	-10.92
▁кай	-10.9203
▁uni	-10.9206
iw	-10.9206
ON	-10.9206
▁aban	-10.921
bätä	-10.9212
▁wang	-10.9213
េ	-10.9214
▁щы	-10.9216
▁чы	-10.9219
وە	-10.922
hem	-10.9221
ôn	-10.9222
▁мал	-10.9223
Ꭶ	-10.9223
▁naxa	-10.9226
▁गु	-10.9228
mine	-10.9231
enta	-10.9231
tʋ	-10.9231
▁پی	-10.9233
▁cal	-10.9235
ಲೆ	-10.9235
▁hay	-10.9237
nung	-10.9241
nio	-10.9242
▁esa	-10.9243
▁politik	-10.9244
gai	-10.9245
ול	-10.9245
▁המ	-10.9248
tions	-10.9249
Ü	-10.9249
▁laga	-10.925
▁Search	-10.925
mmu	-10.925
уа	-10.9254
▁yuu	-10.9254
▁more	-10.9254
▁site	-10.9258
▁тө	-10.9261
पि	-10.9264
лат	-10.9265
gaw	-10.9265
▁fala	-10.9266
▁lè	-10.9267
▁وي	-10.9267
vam	-10.9267
ܽܘ	-10.9269
kos	-10.927
▁lag	-10.927
пу	-10.9273
ां	-10.9274
▁شا	-10.9274
▁ఆ	-10.9275
▁here	-10.9276
▁amy	-10.9276
▁ov	-10.9276
文	-10.9277
▁tempo	-10.9279
्यो	-10.9279
رس	-10.9279
ать	-10.9279
▁пул	-10.928
▁see	-10.9282
▁By	-10.9283
hta	-10.9283
рай	-10.9285
▁እና	-10.9285
زا	-10.9285
ìž	-10.9285
▁afi	-10.9286
▁py	-10.9286
▁Chu	-10.9288
▁niha	-10.9288
juk	-10.9289
理	-10.929
ად	-10.9292
dum	-10.9292
▁भा	-10.9294
pah	-10.9295
misa	-10.9296
lina	-10.9297
▁ayaa	-10.9298
▁dapat	-10.93
▁jich	-10.93
▁До	-10.9302
ىل	-10.9304
न्‍	-10.9305
lary	-10.9308
▁ဒီး	-10.9308
nag	-10.9309
▁opo	-10.9309
awi	-10.931
▁reg	-10.931
basa	-10.9311
▁же	-10.9312
တ်	-10.9312
▁jach	-10.9313
ਸ਼	-10.9314
▁xiang	-10.9316
али	-10.9317
▁Σ	-10.9318
ছে	-10.9318
ņ	-10.9319
គ	-10.932
స్	-10.9321
お	-10.9322
▁iza	-10.9323
▁chaw	-10.9325
වා	-10.9325
jee	-10.9326
йи	-10.9327
▁مس	-10.9328
▁Ин	-10.9332
ಟ	-10.9333
στ	-10.9333
کن	-10.9333
ür	-10.9334
▁kanggo	-10.9334
mey	-10.9335
▁vé	-10.9337
▁nib	-10.9337
rya	-10.9337
Â	-10.934
▁tee	-10.9343
§€	-10.9345
َيْ	-10.9347
ité	-10.9347
ಳ	-10.9349
▁ца	-10.9349
▁काम	-10.935
ⴽ	-10.9352
ann	-10.9355
ɨn	-10.9355
▁tati	-10.9356
合	-10.9357
lɩ	-10.936
lut	-10.9361
▁paka	-10.9362
taca	-10.9363
▁Adam	-10.9363
▁@	-10.9364
▁wel	-10.9365
Ч	-10.9365
▁وا	-10.9365
tr	-10.9366
թ	-10.9366
▁тол	-10.9368
▁kunye	-10.9369
မှာ	-10.9369
ır	-10.9371
кон	-10.9374
ਗ	-10.9374
wane	-10.9377
ще	-10.9377
nei	-10.9378
▁ruma	-10.9381
dho	-10.9383
алъул	-10.9383
▁Bre	-10.9384
ngel	-10.9385
ᑯ	-10.9385
▁mafai	-10.9389
▁seni	-10.939
bale	-10.939
▁eko	-10.939
▁cati	-10.9393
bah	-10.9395
ħa	-10.9395
▁mgo	-10.9395
lf	-10.9395
aca	-10.9396
▁tir	-10.9397
Ar	-10.9398
rge	-10.9399
▁פ	-10.9401
শিং	-10.9404
sili	-10.9404
skej	-10.9408
▁ବ	-10.9408
▁Diospa	-10.9412
▁há	-10.9413
▁Í	-10.9416
ats	-10.9418
jā	-10.9418
▁Kom	-10.9418
ᑭ	-10.942
▁Mba	-10.9421
▁ls	-10.9423
▁ure	-10.9423
ዲ	-10.9426
led	-10.9426
▁ungu	-10.9429
▁tem	-10.9434
рав	-10.9434
▁də	-10.9436
नु	-10.9436
▁эл	-10.9437
gari	-10.9438
▁zoo	-10.944
yet	-10.9442
▁על	-10.9445
bira	-10.9447
soo	-10.9449
¥¼	-10.9449
ந்த	-10.945
ะ	-10.945
▁إلى	-10.9451
▁kiya	-10.9452
họ	-10.9452
▁जो	-10.9452
ும்	-10.9453
▁dum	-10.9454
▁Jun	-10.9455
RA	-10.9456
an̈	-10.9457
eza	-10.9458
▁kele	-10.9458
omu	-10.9459
ជ	-10.946
▁anhia	-10.9461
▁दा	-10.9462
гин	-10.9463
osa	-10.9463
là	-10.9463
inte	-10.9466
kii	-10.9471
▁fl	-10.9475
ٲ	-10.9476
▁him	-10.9476
▁bw	-10.9477
▁mir	-10.9478
ement	-10.948
▁Ю	-10.9483
amente	-10.9485
သူ	-10.9485
nki	-10.9486
▁chon	-10.9487
kó	-10.949
în	-10.949
▁Р	-10.949
▁প্র	-10.9492
vua	-10.9492
▁Que	-10.9492
▁hata	-10.9492
ను	-10.9493
Yu	-10.9494
▁taun	-10.9496
▁saya	-10.9497
▁मि	-10.9497
दि	-10.9498
ті	-10.9499
▁bɑ	-10.9499
ыз	-10.9501
▁ikke	-10.9502
fwa	-10.9502
▁pei	-10.9502
▁male	-10.9503
بي	-10.9503
ર્	-10.9503
▁yuav	-10.9503
ಧ	-10.9504
spe	-10.9506
ġ	-10.9508
bhi	-10.951
uke	-10.951
ვი	-10.9512
ಟ್	-10.9513
▁meta	-10.9513
kok	-10.9516
्व	-10.9518
edi	-10.9521
uman	-10.9521
ၢ်	-10.9521
rij	-10.9522
didi	-10.9523
▁Sin	-10.9523
▁tech	-10.9523
▁kiba	-10.9527
rata	-10.9529
स्ट	-10.9532
urban	-10.9533
▁որ	-10.9534
еп	-10.9534
ramo	-10.9535
UN	-10.9535
▁ਅ	-10.9537
fal	-10.9538
pulu	-10.9539
nc	-10.9542
▁út	-10.9544
saba	-10.9544
ава	-10.9545
▁ngii	-10.9545
▁sve	-10.9545
kaj	-10.9546
was	-10.9546
ंत	-10.9547
▁mingi	-10.955
▁सब	-10.9552
сӧ	-10.9553
▁ly	-10.9554
רי	-10.9554
tutu	-10.9554
▁بول	-10.9555
▁tol	-10.9558
ʊ	-10.956
▁hoj	-10.9561
发	-10.9561
▁ἐ	-10.9562
▁Α	-10.9563
名	-10.9563
shon	-10.9564
▁duh	-10.9565
tigi	-10.9566
pti	-10.9568
উ	-10.9568
ئي	-10.9569
ថា	-10.957
enga	-10.9573
▁Post	-10.9573
fun	-10.9575
▁dà	-10.9577
hā	-10.9578
▁if	-10.9579
▁gr	-10.9579
▁bữn	-10.9581
▁चि	-10.9581
يس	-10.9581
▁vie	-10.9581
▁yw	-10.9582
saj	-10.9583
▁pina	-10.9585
ən	-10.9585
pes	-10.9585
duk	-10.9586
mag	-10.9587
▁data	-10.959
▁rá	-10.9592
པ	-10.9594
▁bel	-10.9597
xic	-10.9599
yuu	-10.9599
തി	-10.9599
တဲ့	-10.96
▁opp	-10.96
LA	-10.96
▁Pag	-10.9601
уна	-10.9603
ဒ	-10.9603
▁willa	-10.9604
▁ति	-10.9605
▁айт	-10.9605
▁mel	-10.9606
▁tó	-10.9607
ост	-10.9609
श्	-10.961
▁hati	-10.9611
vā	-10.9612
بار	-10.9614
раз	-10.9616
▁zna	-10.9616
yil	-10.9621
tzi	-10.9621
lara	-10.9622
ਜ	-10.9622
▁batu	-10.9623
▁Sie	-10.9623
cent	-10.9624
wei	-10.9625
ରା	-10.9625
kaa	-10.9627
ラ	-10.9628
▁vous	-10.963
lk	-10.9633
ði	-10.9635
jur	-10.9635
▁һ	-10.9635
▁ⵓ	-10.9636
▁aha	-10.9639
ト	-10.9639
▁Asa	-10.964
▁br	-10.964
▁lor	-10.9641
များ	-10.9642
رت	-10.9642
會	-10.9643
▁από	-10.9644
نے	-10.9648
ful	-10.9648
▁hono	-10.9648
സ്	-10.965
дж	-10.965
▁Tapi	-10.9652
▁kadi	-10.9653
▁ula	-10.9654
Ž	-10.9655
фа	-10.9656
voj	-10.9656
nou	-10.9657
▁sua	-10.9657
tip	-10.9657
zwe	-10.9658
▁କ	-10.9658
▁ngai	-10.9661
ಣ	-10.9661
▁Š	-10.9664
ா	-10.9665
▁خو	-10.9666
▁social	-10.9666
▁tà	-10.9667
▁chang	-10.9667
sjon	-10.9669
pari	-10.9672
▁sistem	-10.9673
ពី	-10.9676
▁jab	-10.9676
ວ່າ	-10.9677
▁gir	-10.968
▁ಎ	-10.968
▁Ee	-10.968
तो	-10.9681
▁oy	-10.9682
ANG	-10.9688
▁κ	-10.9688
▁koma	-10.9688
гын	-10.9689
▁ere	-10.969
tl	-10.969
▁cont	-10.9691
스	-10.9691
▁ça	-10.9692
sche	-10.9695
हे	-10.9695
▁jas	-10.9696
об	-10.9696
—	-10.9697
رى	-10.9697
▁ли	-10.9697
དུ་	-10.9698
oba	-10.97
▁চ	-10.9702
kpọ	-10.9704
puk	-10.9705
▁sunt	-10.9706
или	-10.9708
ose	-10.9708
ڈ	-10.9708
▁xing	-10.9711
▁ам	-10.9711
ế	-10.9714
यात	-10.9714
事	-10.9718
ૂ	-10.972
Al	-10.9721
pfu	-10.9722
▁गा	-10.9723
▁boo	-10.9724
MA	-10.9725
мер	-10.9727
่	-10.9728
ṣ	-10.973
就	-10.9731
နေ	-10.9731
▁your	-10.9731
jö	-10.9731
▁bulu	-10.9733
▁Ş	-10.9735
kisi	-10.9736
ám	-10.9737
Chitonga	-10.9738
ց	-10.974
gro	-10.9744
ˇ-	-10.9746
مو	-10.9749
ు	-10.9751
▁kro	-10.9752
ނު	-10.9752
зан	-10.9753
▁మ	-10.9755
ښ	-10.9755
mei	-10.9757
ларда	-10.9757
miya	-10.9757
ntes	-10.9759
gol	-10.9759
▁керек	-10.9759
يه	-10.9765
λε	-10.9766
ыг	-10.9767
них	-10.9767
ande	-10.9767
ppu	-10.9768
ຄວາມ	-10.9768
ните	-10.9769
သေ	-10.977
▁aso	-10.9772
▁Ту	-10.9773
jes	-10.9774
▁आहे	-10.9775
meni	-10.9775
ໃຫ້	-10.9776
▁phe	-10.9777
жо	-10.9778
յ	-10.9778
lenge	-10.9778
▁seh	-10.978
ှ	-10.978
NT	-10.9783
Nu	-10.9783
ाय	-10.9783
▁Ñ	-10.9784
ಡಿ	-10.9785
zha	-10.9786
▁сон	-10.9787
自	-10.9788
▁ling	-10.9789
dó	-10.979
▁kani	-10.979
ʋʋ	-10.979
▁Jiova	-10.9791
δ	-10.9794
▁Krais	-10.9794
pui	-10.9796
त्य	-10.9797
▁Kai	-10.9798
ğa	-10.9798
kaya	-10.9799
▁boe	-10.9802
tawa	-10.9802
▁Yésus	-10.9804
ུ	-10.9804
▁yai	-10.9806
▁эн	-10.9806
ange	-10.9806
個	-10.9807
нын	-10.9808
▁pene	-10.9808
dır	-10.9809
▁अपन	-10.981
appe	-10.9811
كى	-10.9811
▁į	-10.9812
wed	-10.9814
▁alo	-10.9815
▁Alata	-10.9817
▁yá	-10.9818
▁lou	-10.9822
性	-10.9823
գ	-10.9823
▁نے	-10.9825
▁Ε	-10.9826
▁sus	-10.9828
▁fang	-10.9828
ე	-10.9829
▁loku	-10.9831
▁hoo	-10.9832
php	-10.9833
tshe	-10.9834
risi	-10.9836
▁xua	-10.9837
акъ	-10.9838
ແລະ	-10.9838
лл	-10.9839
▁må	-10.984
وق	-10.984
hanga	-10.9841
▁ਕਿ	-10.9843
▁Ни	-10.9844
վ	-10.9844
▁हल	-10.9846
▁lit	-10.9847
tema	-10.9849
اف	-10.9851
nä	-10.9852
▁get	-10.9854
ிய	-10.9855
bwe	-10.9858
▁និង	-10.9858
ັດ	-10.9859
ਡ	-10.986
▁Bir	-10.9862
▁ger	-10.9865
▁koi	-10.9866
ោ	-10.9867
▁ple	-10.9867
yah	-10.9867
▁vá	-10.9868
ىپ	-10.9868
ၼ	-10.9868
▁देख	-10.9869
โ	-10.9871
▁jen	-10.9871
guru	-10.9872
▁alt	-10.9873
kay	-10.9874
▁mli	-10.9878
▁nabi	-10.9879
java	-10.9879
▁sug	-10.9881
কা	-10.9882
▁къо	-10.9882
ᑐ	-10.9882
rn	-10.9883
▁pagpa	-10.9883
tami	-10.9884
▁ⵉⵎ	-10.9886
▁לא	-10.9887
▁Ша	-10.9891
title	-10.9892
▁kah	-10.9892
ship	-10.9892
hinga	-10.9894
▁tari	-10.9894
▁fol	-10.9895
tī	-10.9897
ibo	-10.9898
▁سان	-10.9899
hil	-10.9899
ᕕ	-10.9899
fana	-10.9903
âl	-10.9903
▁ɖó	-10.9905
▁بار	-10.9907
бы	-10.9908
▁taq	-10.9909
▁Ob	-10.991
▁estas	-10.9911
wini	-10.9913
▁ο	-10.9915
tij	-10.9915
▁uno	-10.9919
▁შე	-10.9919
▁عن	-10.992
eko	-10.992
dxi	-10.9921
syn	-10.9921
▁nani	-10.9922
	-10.9923
ሚ	-10.9923
ес	-10.9925
ամ	-10.9926
ણ	-10.9926
▁bik	-10.9926
▁foi	-10.9927
tē	-10.9927
™	-10.9928
opa	-10.9932
tol	-10.9932
мэ	-10.9932
金	-10.9934
▁yil	-10.9936
▁naq	-10.9936
▁аь	-10.9939
ǵy	-10.994
दे	-10.9941
▁ही	-10.9941
▁dho	-10.9943
▁baş	-10.9946
▁მო	-10.9946
ອ	-10.9949
wani	-10.9949
▁Mal	-10.9951
好	-10.9953
▁cap	-10.9955
vali	-10.9955
here	-10.9955
▁muka	-10.9955
Ju	-10.9956
tian	-10.9957
naca	-10.9958
!!	-10.9958
rke	-10.9961
▁hama	-10.9961
ӑ	-10.9962
۵	-10.9962
ໂ	-10.9965
ሽ	-10.9966
Ι	-10.997
वन	-10.997
נ	-10.9972
▁Ur	-10.9972
inia	-10.9973
▁बात	-10.9973
▁Jehovha	-10.9974
شی	-10.9976
ും	-10.9976
ਿਆ	-10.9977
ڑ	-10.9978
уп	-10.9979
kle	-10.998
cial	-10.998
▁form	-10.9982
▁halu	-10.9982
▁raja	-10.9983
ரி	-10.9984
▁mako	-10.9984
ligi	-10.9985
တႈ	-10.9985
czy	-10.9987
ونه	-10.9987
nua	-10.9988
არ	-10.9989
▁cabinet	-10.999
vant	-10.999
apo	-10.999
▁ande	-10.999
ंड	-10.9991
▁omo	-10.9991
ို	-10.9992
▁მ	-10.9992
ая	-10.9992
ыры	-10.9996
Gbè	-10.9996
cus	-10.9996
▁آلات	-10.9996
nov	-11
▁ги	-11
▁адам	-11.0001
tsik	-11.0001
laya	-11.0002
Fa	-11.0003
sá	-11.0004
▁dro	-11.0005
نو	-11.0006
lər	-11.0007
ზ	-11.001
hwe	-11.0013
¸°	-11.0014
▁produ	-11.0018
▁كو	-11.0019
cos	-11.0022
▁juu	-11.0028
ें	-11.0028
▁аф	-11.0031
nding	-11.0031
ᕋ	-11.0031
▁vino	-11.0031
થ	-11.0033
sser	-11.0034
nchi	-11.0036
▁yic	-11.0037
▁Yerusalem	-11.0037
sɛ	-11.0037
▁dilo	-11.0038
niki	-11.0039
လႆႈ	-11.0039
▁August	-11.004
▁mul	-11.0042
▁…	-11.0043
caj	-11.0043
▁Nam	-11.0043
onga	-11.0045
rán	-11.0046
جي	-11.0046
▁mě	-11.0047
raw	-11.0048
해	-11.0049
yɩ	-11.005
▁spa	-11.0051
झ	-11.0052
▁wò	-11.0052
ries	-11.0053
ẹn	-11.0054
nig	-11.0055
nggu	-11.0056
ӧн	-11.0057
mpli	-11.0057
RE	-11.0058
ོ་	-11.0059
она	-11.0059
rati	-11.006
ови	-11.0063
nú	-11.0064
ၼၼ်ႉ	-11.0065
▁yich	-11.0066
gut	-11.0067
ната	-11.0069
sip	-11.0071
fon	-11.0072
upa	-11.0072
gwe	-11.0073
rez	-11.0074
PA	-11.0075
▁bao	-11.0075
wt	-11.0078
ố	-11.0079
SA	-11.008
ಲಾ	-11.0082
▁kuku	-11.0084
▁mmọ	-11.0085
▁wä	-11.0086
шт	-11.0087
een	-11.0088
▁Tim	-11.0094
થી	-11.0095
▁Om	-11.0097
▁ᎯᎠ	-11.0097
udu	-11.0098
ຂ	-11.0099
êr	-11.01
▁ச	-11.0102
▁Az	-11.0103
▁Der	-11.0105
▁lugar	-11.0106
ving	-11.0107
ట	-11.0108
stvo	-11.0109
▁थे	-11.011
лас	-11.0111
▁ghe	-11.0111
ത്ത	-11.0111
ōm	-11.0112
▁için	-11.0114
▁eva	-11.0115
usu	-11.0117
үл	-11.0118
▁ه	-11.0119
▁adalah	-11.0119
▁сю	-11.0121
ीय	-11.0123
ял	-11.0125
ondo	-11.0125
▁egy	-11.0127
ி	-11.0128
▁wolo	-11.0129
▁мед	-11.013
▁һа	-11.013
jom	-11.0131
ဂ	-11.0131
も	-11.0134
▁аш	-11.0134
sele	-11.0135
▁internet	-11.0136
▁xian	-11.0136
ить	-11.0136
unda	-11.0138
▁يڠ	-11.0141
▁II	-11.0141
issa	-11.0144
▁muli	-11.0145
ץ	-11.0147
ný	-11.015
üm	-11.0151
▁ukuba	-11.0152
▁dì	-11.0152
▁mʉ	-11.0155
ৰ্	-11.0156
cara	-11.0156
ôr	-11.0157
▁wor	-11.0158
▁eti	-11.0164
gura	-11.0168
▁mm	-11.0168
ड़	-11.0169
▁дене	-11.017
▁Uku	-11.0171
▁toera	-11.0171
▁ло	-11.0172
▁peng	-11.0172
▁maan	-11.0173
inda	-11.0174
мек	-11.0175
iem	-11.0178
▁ও	-11.0178
▁без	-11.0178
বি	-11.018
ḡo	-11.0182
▁nji	-11.0183
nong	-11.0184
▁Де	-11.0187
lelo	-11.0188
SE	-11.0188
etu	-11.0189
▁mange	-11.0189
hom	-11.0191
学	-11.0192
▁Kana	-11.0193
kanga	-11.0199
▁пред	-11.0199
tiko	-11.02
ця	-11.02
тү	-11.0201
inu	-11.0203
မ်း	-11.0203
در	-11.0204
▁ала	-11.0205
▁ప్ర	-11.0205
▁жо	-11.0206
ები	-11.0206
vale	-11.0208
бра	-11.0208
▁ruwa	-11.0209
▁lee	-11.021
uze	-11.021
▁Huan	-11.0211
ම්	-11.0211
▁ñaka	-11.0212
▁ukuti	-11.0213
zz	-11.0214
▁ת	-11.0216
cep	-11.0217
▁કે	-11.0217
▁Ки	-11.0218
▁gri	-11.0219
▁kyn	-11.022
▁suo	-11.0223
ंद	-11.0224
panga	-11.0225
mot	-11.0227
क्	-11.0228
▁fá	-11.0232
▁ekewe	-11.0234
ithe	-11.0234
ית	-11.0235
之	-11.0235
дән	-11.0236
▁teu	-11.0236
मन	-11.0236
▁rumah	-11.0237
The	-11.0237
▁pian	-11.0238
▁mase	-11.0238
▁tus	-11.0239
κα	-11.0239
▁ſ	-11.024
onse	-11.024
ӧр	-11.0243
ப	-11.0244
▁thil	-11.0245
▁wá	-11.0246
pam	-11.0246
ੰ	-11.0247
pwa	-11.0248
▁October	-11.0248
ቃ	-11.025
ሮ	-11.0253
puni	-11.0254
ыу	-11.0258
ados	-11.0258
lian	-11.0263
ві	-11.0265
▁cur	-11.0265
ани	-11.0266
ދު	-11.0272
▁tsis	-11.0274
▁disi	-11.0275
нат	-11.0276
▁ده	-11.0279
▁kes	-11.028
Ꮃ	-11.0281
تار	-11.0282
▁els	-11.0282
▁уз	-11.0284
▁tye	-11.0285
Ф	-11.0286
▁Fer	-11.0287
yên	-11.0288
▁ایک	-11.029
▁Rü	-11.0292
bí	-11.0292
レ	-11.0293
ուն	-11.0295
▁cheng	-11.0297
ийг	-11.0298
前	-11.0299
▁kub	-11.0301
▁dio	-11.0301
ได้	-11.0301
▁ਦਾ	-11.0301
▁ок	-11.0302
ного	-11.0304
оч	-11.0305
jik	-11.0306
部	-11.0307
emo	-11.0311
▁andro	-11.0311
▁ах	-11.0312
рак	-11.0313
ёр	-11.0314
َا	-11.0321
gno	-11.0321
▁তা	-11.0321
▁gwe	-11.0323
stand	-11.0323
▁uca	-11.0324
▁agi	-11.0324
ایی	-11.0325
▁உ	-11.0325
▁bato	-11.0326
▁mod	-11.0327
ሱ	-11.033
ET	-11.0331
▁ਕ	-11.0332
▁না	-11.0332
تن	-11.0332
ކު	-11.0335
cʉ	-11.0335
Ꭸ	-11.0335
suku	-11.0337
▁Satan	-11.0338
kte	-11.0338
dian	-11.0338
ების	-11.0339
▁¡	-11.0342
koni	-11.0343
лъи	-11.0346
tú	-11.0346
ком	-11.0347
டு	-11.0348
рын	-11.0348
ør	-11.0348
ର୍	-11.035
dini	-11.0351
chik	-11.0353
ōn	-11.0354
▁Han	-11.0354
بی	-11.0355
Ꭼ	-11.0356
mic	-11.0358
یل	-11.0359
▁pari	-11.0359
▁नं	-11.036
нт	-11.0362
opo	-11.0362
▁που	-11.0364
▁leat	-11.0365
ნა	-11.0366
▁ahih	-11.0366
▁mur	-11.0369
▁bis	-11.0372
fai	-11.0373
▁lebih	-11.0373
kuba	-11.0373
zana	-11.0375
▁ام	-11.0377
σε	-11.0377
外	-11.0377
JE	-11.0377
ňi	-11.0378
toro	-11.0378
papa	-11.0379
▁साथ	-11.038
▁mundu	-11.038
▁catli	-11.0381
▁će	-11.0382
▁klo	-11.0383
▁bed	-11.0383
▁сур	-11.0389
тт	-11.0392
ང	-11.0394
zel	-11.0395
▁tay	-11.0397
▁aramas	-11.0397
жу	-11.0398
iyan	-11.0401
یه	-11.0403
şı	-11.0403
luka	-11.0405
▁iyan	-11.0405
▁mekem	-11.0407
របស់	-11.0408
▁अब	-11.0409
▁Mam	-11.041
ון	-11.0411
З	-11.0412
мак	-11.0413
▁kandi	-11.0414
▁ɑ	-11.0414
▁bialu	-11.0415
tino	-11.0415
▁ake	-11.0417
isti	-11.0419
▁hore	-11.0421
сэн	-11.0424
ια	-11.0425
▁star	-11.0426
面	-11.0426
vn	-11.0426
ngah	-11.0427
▁yango	-11.0427
onde	-11.0428
రు	-11.0429
▁tura	-11.043
ladi	-11.043
etti	-11.0431
ሞ	-11.0431
▁بود	-11.0431
▁one	-11.0431
ğı	-11.0433
see	-11.0433
জি	-11.0433
▁bà	-11.0434
လာ	-11.0435
эщ	-11.0436
۳	-11.0437
index	-11.0437
▁bele	-11.0437
ÛŒØ	-11.0437
▁problem	-11.0439
HO	-11.044
▁ਪ	-11.0442
ె	-11.0443
қа	-11.0445
加	-11.0445
▁adolah	-11.0446
ella	-11.0449
▁Π	-11.045
trg	-11.045
▁গ	-11.0451
▁yom	-11.0452
▁Online	-11.0452
ే	-11.0453
ದು	-11.0455
▁Ing	-11.0458
chis	-11.0458
upi	-11.0459
να	-11.0461
▁fey	-11.0462
rop	-11.0462
▁kü	-11.0462
▁Amerika	-11.0464
▁sibawa	-11.0465
რე	-11.0467
▁till	-11.0468
AN	-11.0471
үүл	-11.0472
▁nim	-11.0473
▁Ти	-11.0473
시	-11.0475
▁це	-11.0475
▁alới	-11.0476
सं	-11.0477
ский	-11.0478
▁luma	-11.0478
▁fit	-11.0479
ell	-11.0479
▁ont	-11.0482
gil	-11.0482
zwi	-11.0482
ји	-11.0483
tique	-11.0483
▁pama	-11.0484
ева	-11.0485
▁Swahili	-11.0485
▁ফ	-11.0485
▁tuah	-11.0485
ско	-11.0486
áá	-11.0486
rii	-11.049
▁ἔ	-11.0493
ვე	-11.0494
▁uya	-11.0494
▁skal	-11.0494
աց	-11.0495
ரு	-11.0496
▁urang	-11.0496
dere	-11.0497
▁bho	-11.0498
▁Россия	-11.0501
בי	-11.0501
▁wana	-11.0501
▁τα	-11.0501
еле	-11.0502
▁się	-11.0503
eur	-11.0506
▁tij	-11.0507
▁দি	-11.0508
نه	-11.0509
▁taj	-11.0509
gina	-11.051
गो	-11.0511
يم	-11.0512
ינג	-11.0514
▁meri	-11.0514
▁એ	-11.0515
以	-11.0516
xx	-11.0516
▁nà	-11.0518
ใน	-11.0518
дов	-11.052
endo	-11.052
àng	-11.052
▁tap	-11.052
нда	-11.0523
▁الج	-11.0526
▁kako	-11.0528
Ꮣ	-11.053
▁pm	-11.0531
?»	-11.0531
▁کرد	-11.0532
రా	-11.0532
டி	-11.0535
даг	-11.0535
plo	-11.0538
▁DI	-11.0539
မိ	-11.054
סט	-11.0541
koko	-11.0541
▁മ	-11.0542
аж	-11.0542
▁Ara	-11.0542
▁guan	-11.0542
▁ɲa	-11.0543
rsa	-11.0548
্যা	-11.0549
ім	-11.0551
owa	-11.0553
▁bri	-11.0556
יי	-11.0556
▁duo	-11.0557
فر	-11.0558
▁khua	-11.056
biti	-11.0562
tsin	-11.0562
最	-11.0565
▁الن	-11.0568
▁Yéhôva	-11.0568
▁namba	-11.0569
▁isang	-11.057
▁mona	-11.057
лав	-11.0573
ሎ	-11.0573
 	-11.0574
щы	-11.0575
▁chai	-11.0575
GA	-11.0576
▁sebe	-11.0576
rys	-11.0577
pera	-11.0577
bhu	-11.0578
▁Nou	-11.0579
ੈ	-11.058
▁ning	-11.058
bhe	-11.0582
کا	-11.0582
vers	-11.0582
िस	-11.0583
▁nach	-11.0584
ර්	-11.0586
▁Tá	-11.0586
лей	-11.0586
ח	-11.0586
лени	-11.0588
▁ved	-11.0588
lula	-11.0589
▁will	-11.059
▁jou	-11.0591
бат	-11.0592
ær	-11.0592
▁bë	-11.0594
▁bix	-11.0594
▁buku	-11.0595
äl	-11.0596
ати	-11.0596
▁قا	-11.0596
eq	-11.0596
ныҥ	-11.0596
▁ela	-11.0598
ador	-11.06
ют	-11.0601
BA	-11.0603
any	-11.0604
eedda	-11.0604
lda	-11.0605
▁Ale	-11.0607
mbah	-11.0608
▁Đ	-11.0608
وه	-11.0608
▁iban	-11.061
ons	-11.061
▁Bet	-11.0614
カ	-11.0618
서	-11.0618
▁ат	-11.0622
▁ym	-11.0626
▁ле	-11.0626
▁فروش	-11.0627
́n	-11.0628
▁aus	-11.0628
bare	-11.063
▁ир	-11.0631
Ri	-11.0632
▁Sar	-11.0634
▁dati	-11.0634
cci	-11.0635
▁wer	-11.0635
घ	-11.0636
ვა	-11.0637
MI	-11.0639
ዊ	-11.0639
▁ہے۔	-11.064
mbre	-11.0642
તા	-11.0646
baba	-11.0646
elu	-11.0647
щи	-11.0648
зин	-11.065
▁lɔ	-11.0651
▁kao	-11.0653
▁fara	-11.0653
cak	-11.0655
▁Gin	-11.0657
ŭ	-11.0659
▁sla	-11.0664
a̱	-11.0667
år	-11.0668
▁SA	-11.0668
▁ҳа	-11.0669
▁ሓ	-11.067
▁ယ	-11.0671
hkan	-11.0672
sol	-11.0673
lys	-11.0674
хар	-11.0675
Ë	-11.0678
ଗ	-11.0678
▁situa	-11.0679
▁ну	-11.0683
▁кур	-11.0684
биле	-11.0684
▁tzet	-11.0685
ړ	-11.0685
▁mó	-11.0687
оф	-11.0688
▁dupwa	-11.0689
ruh	-11.0689
uza	-11.069
ތު	-11.0692
wv	-11.0692
▁arti	-11.0692
pʉ	-11.0693
▁sistema	-11.0694
▁nuka	-11.0697
ич	-11.0698
ગ	-11.0698
ας	-11.0699
▁day	-11.0699
„	-11.07
нынъ	-11.07
▁kheueh	-11.0701
▁我	-11.0702
pona	-11.0705
▁rua	-11.0706
יה	-11.0708
cun	-11.0708
ege	-11.071
ëën	-11.0711
▁Jerusalén	-11.0712
▁bagi	-11.0713
inal	-11.0714
lö	-11.0717
▁तु	-11.0717
▁ит	-11.0718
▁help	-11.0719
ಯಾ	-11.072
খ	-11.0721
▁cul	-11.0723
▁Tura	-11.0725
лим	-11.0725
▁yɔɔ	-11.0726
дам	-11.0726
▁لو	-11.0726
▁mete	-11.0727
nqa	-11.0728
uju	-11.0729
▁تن	-11.073
▁xch	-11.0732
သိ	-11.0732
ۍ	-11.0732
ဖြစ်	-11.0733
▁tënë	-11.0734
▁অসি	-11.0736
omba	-11.0738
ась	-11.0739
市	-11.0739
▁വ	-11.0739
▁има	-11.074
▁suu	-11.074
ో	-11.0741
bong	-11.0742
zir	-11.0742
ыв	-11.0743
▁ipa	-11.0744
▁media	-11.0748
▁halak	-11.0749
ының	-11.0752
▁වි	-11.0753
▁KA	-11.0754
▁kú	-11.0754
▁mí	-11.0756
buka	-11.0756
οῦ	-11.0757
i̱	-11.0758
▁Hy	-11.0758
вай	-11.076
▁কা	-11.0764
mee	-11.0765
ewe	-11.0766
▁bí	-11.0767
▁dika	-11.0768
ⵣ	-11.0769
▁loh	-11.0774
▁ime	-11.0776
▁diya	-11.0778
jh	-11.0781
tɨ	-11.0783
▁nous	-11.0786
ទៅ	-11.0787
▁ngwa	-11.0788
iswa	-11.0788
▁Naa	-11.0789
▁ipi	-11.0789
ܓ	-11.0791
ڊ	-11.0791
cä	-11.0792
网	-11.0797
▁riq	-11.0799
ș	-11.0799
ҙ	-11.0799
▁mela	-11.0799
ே	-11.08
str	-11.0801
ನಾ	-11.0802
naan	-11.0803
ோ	-11.0804
▁Mulungu	-11.0805
▁бел	-11.0805
▁Шу	-11.0808
▁were	-11.0809
۱	-11.081
ىر	-11.0812
pie	-11.0814
għa	-11.0815
▁тар	-11.0818
ூ	-11.0819
िन	-11.0819
▁mili	-11.0819
saan	-11.0821
hii	-11.0821
▁бор	-11.0821
Ꮵ	-11.0821
▁مت	-11.0821
sı	-11.0822
▁ganny	-11.0823
guma	-11.0824
кә	-11.0824
६	-11.0825
uya	-11.0828
▁μ	-11.0828
ั	-11.083
水	-11.0832
▁သ	-11.0833
дым	-11.0833
آ	-11.0833
▁cui	-11.0834
ತೆ	-11.0834
▁caj	-11.0834
ibu	-11.0834
хьэ	-11.0838
бор	-11.0839
тым	-11.0843
маш	-11.0848
▁grup	-11.085
ḥ	-11.0853
▁dɛ	-11.0856
▁tab	-11.0856
▁sú	-11.0857
▁Android	-11.0857
ներ	-11.0858
▁für	-11.0858
ća	-11.0859
▁jump	-11.0859
dung	-11.086
lā	-11.0861
ட்ட	-11.0862
▁Peter	-11.0862
œë	-11.0863
▁Pay	-11.0865
▁gö	-11.0866
▁cer	-11.0867
▁pɨ	-11.0868
▁tễ	-11.0869
▁ആ	-11.0871
nz	-11.0872
ൂ	-11.0872
▁henia	-11.0872
▁shin	-11.0873
ань	-11.0873
▁Bra	-11.0875
̍k	-11.0878
dagi	-11.0879
▁oki	-11.0881
▁pir	-11.0882
ış	-11.0883
ണ	-11.0883
度	-11.0883
ог	-11.0885
▁може	-11.0888
ەر	-11.0889
Ho	-11.0889
yk	-11.089
▁sii	-11.0895
▁hina	-11.0896
ả	-11.0896
▁ἡ	-11.0897
ход	-11.09
▁Jezu	-11.0901
гән	-11.0902
▁आप	-11.0902
▁guu	-11.0903
sɔ	-11.0904
="	-11.0906
сыз	-11.0907
▁ਵਿੱਚ	-11.0907
ታት	-11.0908
▁pass	-11.0908
▁ማ	-11.0909
▁če	-11.0909
▁mb	-11.091
▁ká	-11.0913
մ	-11.0915
▁خود	-11.0916
ނ	-11.0918
suu	-11.0918
▁Мар	-11.092
bek	-11.0921
▁nó	-11.0923
▁өз	-11.0923
LE	-11.0924
▁KU	-11.0925
""	-11.0925
▁रा	-11.0925
yň	-11.0926
ރި	-11.093
ੁ	-11.0931
pl	-11.0931
anni	-11.0933
дың	-11.0936
ches	-11.0937
lac	-11.0938
▁hum	-11.0939
stitu	-11.094
▁דער	-11.0941
עס	-11.0942
yada	-11.0942
ৈ	-11.0944
TU	-11.0945
▁bod	-11.0945
▁lino	-11.0946
hab	-11.0948
�„	-11.0949
▁ء	-11.0949
▁maki	-11.095
bona	-11.0951
▁спорт	-11.0951
▁moa	-11.0952
eba	-11.0952
rant	-11.0952
ave	-11.0953
tụ	-11.0953
▁Em	-11.0954
fy	-11.0955
▁छी	-11.0956
નો	-11.0956
▁musi	-11.0956
tore	-11.0957
нал	-11.0957
jta	-11.0958
Du	-11.0958
rja	-11.0959
áƒ	-11.096
awe	-11.0963
ţi	-11.0963
ando	-11.0963
】【	-11.0965
יש	-11.0965
▁kab	-11.0966
nor	-11.0966
pela	-11.0967
▁ਬ	-11.0967
▁final	-11.0968
▁finn	-11.0969
▁Ts	-11.0971
stat	-11.0971
▁Af	-11.0973
אַל	-11.0974
gama	-11.0975
▁Apple	-11.0975
xel	-11.0975
mada	-11.0976
sanga	-11.0977
цу	-11.0977
شە	-11.0979
stav	-11.0979
bab	-11.098
اسي	-11.0982
сон	-11.0982
Ô	-11.0982
Jo	-11.0982
▁ത	-11.0984
vanje	-11.0985
timo	-11.0985
▁vegn	-11.0986
▁Abi	-11.0986
̍t	-11.0987
ᏍᏗ	-11.0989
ND	-11.099
эхэм	-11.0991
۰	-11.0993
पी	-11.0993
ភ	-11.0994
▁ٿي	-11.0994
▁TV	-11.0996
kota	-11.0998
sä	-11.0998
وار	-11.0999
▁kↄ̃n	-11.1
https	-11.1002
▁sir	-11.1003
▁tša	-11.1006
ikai	-11.1006
▁laba	-11.1008
▁юм	-11.1009
▁ક	-11.101
пер	-11.1011
bata	-11.1013
▁Ham	-11.1013
lẹ	-11.1015
క్	-11.1016
▁makan	-11.1018
gis	-11.1018
вы	-11.1019
▁suku	-11.102
▁kone	-11.102
▁ε	-11.1022
▁Thu	-11.1022
▁maba	-11.1023
ngku	-11.1023
▁Kam	-11.1023
ppo	-11.1023
ά	-11.1025
hoo	-11.1027
bera	-11.103
▁نە	-11.103
▁nika	-11.103
フ	-11.1031
ım	-11.1031
▁svo	-11.1033
رب	-11.1034
२	-11.1036
jab	-11.1036
www	-11.1036
▁udi	-11.104
En	-11.1041
ći	-11.1042
▁Penis	-11.1044
toni	-11.1044
▁दिन	-11.1045
vm	-11.1046
roma	-11.1048
인	-11.1049
▁kaŋ	-11.1049
▁Simon	-11.1051
▁उप	-11.1051
riko	-11.1052
ìn	-11.1052
ства	-11.1053
hli	-11.1055
IT	-11.1055
שי	-11.1055
ጣ	-11.1056
▁cứq	-11.1058
▁bio	-11.1058
yā	-11.1059
▁Bara	-11.106
▁loto	-11.1064
▁pampa	-11.1064
לע	-11.1064
同	-11.1064
▁чо	-11.1065
ош	-11.1067
▁mö	-11.1068
▁più	-11.1069
▁saray	-11.1069
▁লৈ	-11.1069
ең	-11.1071
▁pati	-11.1074
▁आन	-11.1075
tulu	-11.1076
AT	-11.1077
ዘ	-11.1077
장	-11.1078
▁Next	-11.1079
تھ	-11.108
רו	-11.108
▁ہیں	-11.108
enna	-11.108
▁pya	-11.108
▁کان	-11.1081
masi	-11.1081
▁taimi	-11.1082
bou	-11.1082
لم	-11.1084
siko	-11.1084
mə	-11.1084
ቢ	-11.1086
▁nomo	-11.1087
▁Mun	-11.1089
▁rupi	-11.1092
န့ၣ်လီၤ	-11.1092
ness	-11.1092
▁تہٕ	-11.1093
主	-11.1093
ruk	-11.1094
▁τῆς	-11.1096
އެވެ	-11.1096
qy	-11.1097
▁شده	-11.1097
ⵓⵏ	-11.1098
دي	-11.1102
ộ	-11.1104
hee	-11.1106
▁lom	-11.1107
▁kame	-11.1107
▁wé	-11.1108
▁ore	-11.1111
рә	-11.1113
▁pres	-11.1113
▁މަ	-11.1113
gay	-11.1114
oka	-11.1115
▁joo	-11.1115
үр	-11.1116
▁сар	-11.1116
▁deka	-11.1116
特	-11.1118
ৰি	-11.1119
▁jina	-11.1119
▁zan	-11.1121
landa	-11.1121
aria	-11.1122
▁учун	-11.1123
▁samting	-11.1126
ܙ	-11.1126
▁мин	-11.1127
މަ	-11.1127
▁tiempo	-11.1128
ëë	-11.1128
▁Nahuatl	-11.1129
sè	-11.113
оло	-11.1132
jara	-11.1133
бай	-11.1133
▁או	-11.1135
▁meke	-11.1135
bru	-11.1136
¶	-11.1138
ەك	-11.1139
▁לה	-11.114
খি	-11.1141
يق	-11.1142
▁रहल	-11.1144
▁sos	-11.1145
者	-11.1146
▁kusa	-11.1147
ktor	-11.1149
▁gur	-11.1149
▁bile	-11.1149
▁și	-11.1151
▁panga	-11.1152
▁comme	-11.1152
turi	-11.1153
tero	-11.1153
ovi	-11.1153
wara	-11.1155
ⴰ	-11.1158
ngele	-11.1159
▁şi	-11.1159
자	-11.116
▁къэ	-11.116
ਹ	-11.1161
代	-11.1162
▁jaa	-11.1162
▁lya	-11.1163
▁bese	-11.1164
TE	-11.1164
▁veur	-11.1165
▁Ei	-11.1166
តែ	-11.1166
▁gat	-11.1167
▁ந	-11.1167
siri	-11.1168
▁solo	-11.1168
yna	-11.1168
EN	-11.1169
▁یہ	-11.1169
pale	-11.1169
▁March	-11.1171
sky	-11.1171
▁चु	-11.1172
▁komp	-11.1173
ında	-11.1173
▁બ	-11.1174
▁kɛ́	-11.1175
yè	-11.1176
▁Tar	-11.1178
рек	-11.1178
aye	-11.1178
方	-11.1179
く	-11.1182
خت	-11.1182
▁liv	-11.1183
▁real	-11.1183
tete	-11.1184
veni	-11.1186
▁lagu	-11.1189
tumi	-11.1189
ས།	-11.119
▁kple	-11.1191
cis	-11.1191
tsha	-11.1192
દ	-11.1192
сі	-11.1193
NA	-11.1194
limu	-11.1195
·¸	-11.1195
эдэ	-11.1195
▁гъ	-11.1195
ꨳ	-11.1196
nın	-11.1196
ి	-11.1196
▁pek	-11.1198
【	-11.1198
	-11.1199
▁mato	-11.1199
wong	-11.1201
atsi	-11.1201
tira	-11.1201
ře	-11.1201
ýar	-11.1203
gé	-11.1205
cI	-11.1206
▁roman	-11.1206
liza	-11.1207
▁ናይ	-11.1207
▁Inter	-11.1207
▁yỗn	-11.1209
▁buk	-11.1209
▁tradi	-11.121
ף	-11.1211
yɨ	-11.1212
▁ව	-11.1212
رم	-11.1213
▁gör	-11.1214
vana	-11.1214
ଟ	-11.1216
fri	-11.1217
jt	-11.1217
rural	-11.1218
န္	-11.1219
▁উ	-11.1223
▁ז	-11.1224
ət	-11.1225
ING	-11.1225
▁noku	-11.1226
▁пос	-11.1226
toto	-11.1228
▁Nya	-11.1229
▁یو	-11.1229
▁kɛnɛ	-11.123
▁ngar	-11.1231
▁съ	-11.1232
ize	-11.1232
▁máh	-11.1233
rbi	-11.1234
▁mad	-11.1237
zala	-11.1239
hur	-11.1239
डी	-11.124
▁ஆ	-11.1241
ər	-11.1241
▁problema	-11.1241
▁nono	-11.1242
më	-11.1242
йт	-11.1242
▁hã	-11.1242
logo	-11.1243
quot	-11.1245
▁aktiv	-11.1245
dən	-11.1248
hou	-11.1249
نە	-11.1249
▁tiah	-11.125
▁blanga	-11.125
sma	-11.1254
▁арт	-11.1254
chá	-11.1254
▁ወ	-11.1255
lad	-11.1255
▁juon	-11.1255
ء	-11.1256
ញ	-11.1256
lani	-11.1257
▁Dar	-11.1258
ük	-11.1258
epe	-11.1258
န်	-11.1259
▁diba	-11.1259
cue	-11.126
̨	-11.1261
▁June	-11.1263
уы	-11.1263
সি	-11.1265
tio	-11.1265
▁Solomon	-11.1268
Mar	-11.1269
▁Ми	-11.1269
▁wara	-11.1271
Ꮩ	-11.1271
ај	-11.1273
имиз	-11.1274
ତା	-11.1275
gong	-11.1276
син	-11.1276
bulu	-11.1277
ـ	-11.1277
▁Creole	-11.1277
kuli	-11.1277
hati	-11.1278
scri	-11.1278
éel	-11.128
قى	-11.1283
▁pata	-11.1284
▁chal	-11.1286
лық	-11.1286
▁Sy	-11.1287
idu	-11.1287
tatu	-11.1287
rica	-11.1287
▁रह	-11.1288
wia	-11.1289
▁స	-11.1289
иши	-11.1289
▁hotel	-11.1289
▁тя	-11.129
▁jä	-11.129
明	-11.1292
而	-11.1294
ቡ	-11.1294
▁wë	-11.1296
▁νὰ	-11.1297
▁sig	-11.1298
▁fru	-11.1298
你	-11.1299
▁ying	-11.1299
....	-11.13
haka	-11.13
▁এই	-11.1302
ⵔⴰ	-11.1304
▁кир	-11.1307
▁кү	-11.1309
ların	-11.1309
ު	-11.1309
chal	-11.1309
▁fle	-11.1309
nee	-11.1311
ware	-11.1313
Ы	-11.1314
ზე	-11.1314
▁koh	-11.1314
rag	-11.1315
▁jih	-11.1317
לו	-11.1318
baga	-11.1318
▁tše	-11.1323
emu	-11.1323
▁bae	-11.1325
.”​—	-11.1325
▁క	-11.1325
▁ସ	-11.1326
той	-11.1326
▁misa	-11.1326
▁gho	-11.1327
▁Edi	-11.1327
▁yaku	-11.1329
▁sobre	-11.1329
▁aval	-11.1329
▁Μ	-11.133
bene	-11.1332
▁n̄an	-11.1333
▁iku	-11.1333
▁Mak	-11.1333
▁ⵜⵉ	-11.1334
មិន	-11.1335
ক্	-11.1336
▁khö	-11.1336
▁####	-11.1338
▁η	-11.1338
ivq	-11.1338
▁š	-11.1338
▁بن	-11.1338
▁gaq	-11.1339
ους	-11.134
ουν	-11.134
कु	-11.134
tše	-11.1342
▁ବି	-11.1343
▁Kristu	-11.1344
▁lobi	-11.1345
KA	-11.1349
chus	-11.1351
▁daa	-11.1352
ыла	-11.1352
▁Bro	-11.1352
lî	-11.1354
mad	-11.1355
BO	-11.1358
▁model	-11.1359
یش	-11.1359
алт	-11.1359
ப்	-11.136
DE	-11.1361
བྱ	-11.1361
lm	-11.1363
တွေ	-11.1365
▁пал	-11.1365
ದೆ	-11.1366
ете	-11.1367
afi	-11.1368
ᐱ	-11.1369
▁abantu	-11.137
▁ɖɩ	-11.1372
▁जु	-11.1372
▁Cre	-11.1374
▁ой	-11.1375
▁Des	-11.1377
▁tè	-11.1377
ών	-11.138
eyi	-11.1381
▁peri	-11.1383
stä	-11.1383
ꞌo	-11.1385
▁kudu	-11.1385
▁phi	-11.1386
▁À	-11.1387
▁hogy	-11.1391
We	-11.1392
llata	-11.1392
▁кӧ	-11.1392
PR	-11.1394
dade	-11.1395
bâ	-11.1395
ಲು	-11.1396
ৰা	-11.1396
▁č	-11.1397
▁نہیں	-11.1397
▁bä	-11.1398
​​​​​​​​​​​​​​​​	-11.1398
▁мас	-11.1398
▁aboro	-11.1399
▁wow	-11.1401
omi	-11.1401
▁iyi	-11.1403
еж	-11.1404
▁【	-11.1404
▁kene	-11.1405
ވެ	-11.1405
▁Papa	-11.1406
▁inc	-11.1407
миш	-11.1407
TI	-11.1408
▁lä	-11.1408
kera	-11.1409
力	-11.141
vaka	-11.1411
▁सभ	-11.1412
יט	-11.1412
▁nitre	-11.1412
aho	-11.1413
▁sasa	-11.1414
dodo	-11.1415
itz	-11.1415
maq	-11.1418
tuma	-11.1419
▁Mor	-11.1419
ɲɛ	-11.142
▁wee	-11.142
▁gina	-11.1421
pí	-11.1421
▁dow	-11.1422
fee	-11.1425
él	-11.1426
hau	-11.1427
▁Ü	-11.1427
ага	-11.1429
rume	-11.1429
؛	-11.1431
▁ño	-11.1431
▁nispa	-11.1432
▁yeb	-11.1433
▁эш	-11.1434
টা	-11.1437
▁app	-11.1439
ेन	-11.1439
▁ngam	-11.144
▁ತ	-11.1441
ພ	-11.1442
ኛ	-11.1442
τη	-11.1442
ọrọ	-11.1443
ère	-11.1443
▁yuan	-11.1445
DA	-11.1445
▁Ph	-11.1445
▁Windows	-11.1447
yı	-11.1448
時	-11.1449
▁хъ	-11.1449
гер	-11.1452
tys	-11.1453
iche	-11.1457
▁kati	-11.1457
▁рас	-11.1457
▁vos	-11.146
غا	-11.1461
іп	-11.1462
▁​​	-11.1462
રી	-11.1462
手	-11.1462
dɔ	-11.1463
▁pel	-11.1464
acha	-11.1466
eyo	-11.1466
ܰܝ	-11.1466
▁Del	-11.1466
كا	-11.1467
「	-11.1467
pya	-11.1468
ហ	-11.1468
ihi	-11.1469
يك	-11.1469
ःगु	-11.147
ରି	-11.1471
▁dik	-11.1471
mail	-11.1472
▁fii	-11.1474
yong	-11.1475
yek	-11.1475
ӧм	-11.1475
▁menm	-11.1477
▁Christ	-11.1477
ера	-11.1478
▁MP	-11.148
لان	-11.1481
▁хэ	-11.1481
mentu	-11.1484
ਚ	-11.1485
▁бул	-11.1489
▁plu	-11.1492
▁ন	-11.1493
▁그	-11.1494
tula	-11.1494
ძ	-11.1495
ফ	-11.1496
стр	-11.1497
▁रहे	-11.1498
▁ओकरा	-11.1498
َنْ	-11.1498
▁پو	-11.1499
▁raka	-11.15
ଙ୍କ	-11.1501
ów	-11.1501
käre	-11.1501
odo	-11.1503
ۊ	-11.1504
із	-11.1504
▁kiri	-11.1504
gʉ	-11.1505
kê	-11.1506
都	-11.1506
izi	-11.1507
▁Ger	-11.1507
uq	-11.1507
جر	-11.1509
▁بل	-11.1509
▁Bur	-11.1509
▁eba	-11.1511
ৎ	-11.1512
ður	-11.1512
ლი	-11.1513
hir	-11.1513
ມາ	-11.1515
▁BA	-11.1516
vei	-11.1517
maha	-11.1517
ებ	-11.1517
ႃႇ	-11.1518
▁кун	-11.1518
ပှၤ	-11.1519
▁hä	-11.1519
▁кер	-11.152
▁सक	-11.1523
▁Petrus	-11.1524
▁الق	-11.1524
ˉ	-11.1525
ೈ	-11.1527
▁jaau	-11.1528
▁તે	-11.1528
ີ	-11.1528
▁ï	-11.1529
ape	-11.1529
▁maar	-11.1529
▁үз	-11.153
ɣa	-11.1531
ዓ	-11.1532
▁umana	-11.1532
lyk	-11.1532
ས	-11.1533
▁mangi	-11.1533
char	-11.1533
ദ	-11.1534
▁conse	-11.1536
▁dak	-11.1539
​—	-11.1539
wet	-11.154
गर	-11.1541
oldid	-11.1544
▁tul	-11.1545
mise	-11.1545
▁nina	-11.1549
！	-11.155
▁δ	-11.1551
lolo	-11.1552
lite	-11.1552
る	-11.1553
aia	-11.1554
▁मेको	-11.1555
AK	-11.1557
tili	-11.1557
▁September	-11.1557
ама	-11.1558
▁obi	-11.1559
▁rag	-11.156
ើ	-11.156
bej	-11.1562
▁Kara	-11.1562
raja	-11.1563
▁بعد	-11.1563
▁tê	-11.1564
▁तक	-11.1564
▁хай	-11.1564
▁kɔnɔ	-11.1566
▁طور	-11.1566
جه	-11.1567
▁pee	-11.1567
▁کن	-11.1567
£	-11.1569
teke	-11.157
▁moro	-11.157
▁hewa	-11.1572
ኽ	-11.1576
ରୁ	-11.1576
▁loa	-11.1579
▁биз	-11.158
ਦਾ	-11.158
▁German	-11.1582
মি	-11.1582
ނީ	-11.1583
ышты	-11.1584
▁kutu	-11.1586
ments	-11.1587
чен	-11.1589
US	-11.1589
nter	-11.159
▁الس	-11.1591
▁President	-11.1594
▁tej	-11.1595
лыг	-11.1595
▁jai	-11.1596
sc	-11.1597
رن	-11.1597
看	-11.1599
公	-11.1599
▁tag	-11.16
ާ	-11.1601
▁τ	-11.1601
▁December	-11.1601
hiya	-11.1603
थि	-11.1603
▁uwa	-11.1604
uen	-11.1606
мар	-11.1607
kome	-11.1608
▁घर	-11.1613
搭	-11.1613
ଛି	-11.1613
ไ	-11.1614
gaa	-11.1615
时	-11.1615
▁kiki	-11.1615
ି	-11.1617
▁الإ	-11.1618
▁توپ	-11.1619
قل	-11.1619
ᑖ	-11.162
gbu	-11.162
ᐸ	-11.1622
▁Tua	-11.1623
▁woko	-11.1624
mol	-11.1624
▁saba	-11.1624
ற	-11.1624
▁diti	-11.1624
▁كە	-11.1625
ٛ	-11.1626
lako	-11.1626
тур	-11.1627
▁бла	-11.1628
ome	-11.163
▁test	-11.1631
eth	-11.1634
▁November	-11.1634
nici	-11.1634
ċi	-11.1634
▁ప	-11.1636
사	-11.1637
▁ndipo	-11.164
эхэ	-11.164
ալ	-11.1642
ақ	-11.1642
ති	-11.1643
▁kee	-11.1646
ǎ	-11.1648
▁vya	-11.1649
▁dili	-11.1651
essa	-11.1652
шу	-11.1653
▁Ж	-11.1654
▁sì	-11.1655
ôm	-11.1657
▁tiko	-11.1657
بو	-11.1657
bane	-11.1658
▁yong	-11.1659
нъ	-11.166
Cyrillic	-11.1662
ddo	-11.1662
ของ	-11.1664
▁bilen	-11.1666
▁February	-11.1667
▁له‌	-11.1667
ров	-11.1668
ແມ່ນ	-11.1672
rato	-11.1673
kono	-11.1673
▁Sai	-11.1674
мир	-11.1675
▁lima	-11.1677
дыҥ	-11.1677
אָ	-11.1677
▁hii	-11.1678
▁Bal	-11.1684
▁نڠ	-11.1685
ލް	-11.1685
▁kanye	-11.1688
▁tabo	-11.1689
▁kwin	-11.169
юз	-11.169
▁Республика	-11.1691
kü	-11.1691
▁iş	-11.1692
▁zum	-11.1692
▁кь	-11.1692
▁yes	-11.1693
▁US	-11.1694
▁ور	-11.1694
ᒐ	-11.1695
▁không	-11.1695
тыш	-11.1698
سم	-11.1698
▁anan	-11.1699
▁cay	-11.1702
igo	-11.1702
▁mè	-11.1703
▁хү	-11.1703
љ	-11.1704
▁γ	-11.1706
ngwe	-11.1707
წ	-11.1709
rent	-11.1709
▁rom	-11.1709
kore	-11.171
▁tagata	-11.1712
loo	-11.1713
ngisa	-11.1713
▁कह	-11.1713
ਰੀ	-11.1714
▁яр	-11.1715
▁ද	-11.1717
▁katika	-11.1717
შ	-11.1717
EM	-11.1718
▁Tok	-11.1718
Co	-11.1719
ინ	-11.1721
loko	-11.1722
▁Mwa	-11.1724
မ့ၢ်	-11.1726
▁ስ	-11.1726
▁duma	-11.1726
দি	-11.1727
▁zwa	-11.173
▁sian	-11.1733
biya	-11.1733
▁nɛn	-11.1734
▁City	-11.1736
과	-11.1739
▁akali	-11.174
▁prima	-11.1742
sema	-11.1743
aina	-11.1743
ër	-11.1743
▁Ken	-11.1744
ന്ന	-11.1745
▁iš	-11.1745
▁aho	-11.1747
cü	-11.1747
тта	-11.175
este	-11.1751
vè	-11.1752
▁sī	-11.1754
▁оз	-11.1757
ཐ	-11.1757
নবা	-11.1757
рда	-11.176
zie	-11.176
▁start	-11.176
dü	-11.1761
▁Jéhovah	-11.1761
lita	-11.1762
▁Ö	-11.1763
ܲ	-11.1764
▁Ngo	-11.1765
lti	-11.1766
▁пере	-11.1767
▁cä	-11.1768
AS	-11.1769
▁буго	-11.177
▁ਲਈ	-11.177
макъ	-11.177
▁хал	-11.1772
+.	-11.1773
▁ئەو	-11.1774
нең	-11.1774
ब्	-11.1775
▁ɲ	-11.1777
رَ	-11.1777
مل	-11.1777
▁wakwe	-11.1777
ynda	-11.1777
lú	-11.1777
▁ዘ	-11.1779
hed	-11.1779
нче	-11.1781
▁programa	-11.1781
ವೆ	-11.1782
▁koje	-11.1783
▁sba	-11.1784
ห	-11.1787
gham	-11.1789
▁just	-11.1789
pali	-11.1789
shì	-11.1789
اح	-11.1792
▁siagang	-11.1793
ଦ	-11.1794
ënë	-11.1794
▁haga	-11.1795
正	-11.1796
ings	-11.1797
esa	-11.1798
ᑲ	-11.1798
ous	-11.1799
ီး	-11.1799
HA	-11.18
▁Timoteo	-11.18
▁big	-11.1801
afa	-11.1802
లి	-11.1802
ઓ	-11.1802
nso	-11.1802
▁Puang	-11.1803
▁medi	-11.1803
$	-11.1804
ყ	-11.1805
▁кил	-11.1805
▁vers	-11.1806
▁muk	-11.1806
▁TA	-11.1806
uel	-11.1806
မ်	-11.1807
ୟ	-11.1807
)(	-11.1808
▁pwo	-11.1809
他	-11.181
yari	-11.181
▁ڤا	-11.1811
▁só	-11.1812
ıl	-11.1812
▁Sursĩ	-11.1815
urs	-11.1815
▁बु	-11.1815
ບໍ່	-11.1817
ူး	-11.1817
ষ	-11.1818
με	-11.1819
▁هي	-11.182
লো	-11.182
▁iā	-11.182
▁→	-11.182
დი	-11.182
▁कुछ	-11.1822
dana	-11.1822
▁passa	-11.1822
▁Bali	-11.1823
三	-11.1825
ė	-11.1825
hina	-11.1825
ías	-11.1827
uko	-11.1827
ກັບ	-11.1828
ཤ	-11.1829
low	-11.1831
▁bâ	-11.1832
▁nws	-11.1834
˜	-11.1835
▁الب	-11.1835
▁इस	-11.1836
▁орган	-11.1837
kab	-11.1837
աս	-11.1838
▁wawu	-11.1838
▁mbei	-11.1841
▁ከም	-11.1841
ларга	-11.1841
▁King	-11.1843
дат	-11.1844
gali	-11.1846
ɑ́	-11.1848
volu	-11.1848
ӧс	-11.1848
▁jare	-11.185
▁wane	-11.185
▁nara	-11.185
位	-11.1851
‚¬	-11.1851
های	-11.1853
ৱ	-11.1854
▁English	-11.1854
▁home	-11.1854
▁પ	-11.1855
▁birin	-11.1855
▁yad	-11.1856
▁ū	-11.1857
▁nii	-11.1858
▁athu	-11.1859
aso	-11.186
▁ເຍີຍ	-11.186
ode	-11.1862
号	-11.1863
▁تم	-11.1863
pod	-11.1863
▁گو	-11.1864
▁dya	-11.1866
▁Anti	-11.1867
▁ක	-11.1867
ერ	-11.1868
▁lwe	-11.1869
rog	-11.1872
tant	-11.1873
▁hian	-11.1873
▁nopo	-11.1874
әк	-11.1876
inen	-11.1877
▁pì	-11.1877
ifica	-11.1878
▁Jadi	-11.1878
ters	-11.1879
νε	-11.188
др	-11.188
hó	-11.188
▁các	-11.1881
yle	-11.1881
قی	-11.1883
▁י	-11.1884
berg	-11.1885
▁σε	-11.1885
▁къ	-11.1885
▁ef	-11.1887
▁ā	-11.1889
▁free	-11.1889
ario	-11.1891
ܶܗ	-11.1891
ຸ	-11.1893
ရာ	-11.1896
▁noch	-11.19
ሓ	-11.1901
▁Eva	-11.1902
라	-11.1903
▁शा	-11.1903
оо	-11.1906
▁ruk	-11.1907
Luka	-11.1908
tiki	-11.1908
әс	-11.1908
там	-11.1909
ངས་	-11.1909
ER	-11.191
۶	-11.1911
diri	-11.1911
▁banyak	-11.1913
يون	-11.1913
▁rasa	-11.1914
ӹм	-11.1914
▁vä	-11.1916
▁July	-11.1918
рь	-11.1918
▁táq	-11.1918
▁upa	-11.1918
▁së	-11.1918
ޮ	-11.1918
▁mũ	-11.192
▁gaa	-11.192
RU	-11.1921
cing	-11.1921
▁Wu	-11.1921
▁लि	-11.1922
▁수	-11.1924
▁pikeun	-11.1924
▁halo	-11.1925
ܰܘ	-11.1929
▁ipak	-11.193
▁Κ	-11.193
ɔŋ	-11.1931
್	-11.1931
た	-11.1932
▁José	-11.1933
▁ook	-11.1936
σι	-11.1937
▁gru	-11.1937
್ಯಾ	-11.1939
irt	-11.1939
ತಾ	-11.194
zzjoni	-11.194
gera	-11.194
▁amar	-11.1946
▁tỡ	-11.1948
エ	-11.1949
kami	-11.1952
ող	-11.1954
▁آهن	-11.1955
▁È	-11.1955
σα	-11.1961
▁१	-11.1961
ঁ	-11.1961
▁yina	-11.1962
था	-11.1962
кат	-11.1963
▁či	-11.1964
้	-11.1965
▁ⵓⵙ	-11.1966
▁नयँ	-11.1966
ễ	-11.1966
cui	-11.1967
LO	-11.1967
▁sikandin	-11.1969
այ	-11.1969
▁Air	-11.197
out	-11.197
now	-11.197
き	-11.1973
lär	-11.1974
▁bathroom	-11.1976
ဟ	-11.1976
cum	-11.1977
هن	-11.1977
▁байна	-11.1979
kod	-11.1979
▁tsha	-11.1982
▁олар	-11.1982
jor	-11.1984
stin	-11.1985
ntri	-11.1985
bee	-11.1986
tayo	-11.1988
ི་	-11.1989
▁ⴰⵎ	-11.1989
▁jel	-11.199
ލި	-11.199
▁set	-11.199
ന്‍	-11.199
ْ	-11.199
ப்ப	-11.1991
ນີ້	-11.1992
▁Pita	-11.1995
▁dun	-11.1997
hut	-11.1997
pasa	-11.1997
ахь	-11.1997
tli	-11.2
toy	-11.2001
▁ayns	-11.2001
▁awi	-11.2001
لْ	-11.2002
▁Си	-11.2002
▁tuntang	-11.2003
ён	-11.2004
рк	-11.2005
གས་	-11.2005
▁lie	-11.2006
poro	-11.2006
Ꮢ	-11.2007
MP	-11.2007
▁dil	-11.2008
▁Ed	-11.2008
▁zá	-11.2009
▁Fin	-11.2009
von	-11.2011
▁Rom	-11.2013
▁naxan	-11.2013
piri	-11.2015
әм	-11.2015
ண	-11.2018
رات	-11.2018
έ	-11.2018
మా	-11.2019
CA	-11.2021
–´	-11.2023
▁къу	-11.2023
ⵉⵍ	-11.2024
ҷа	-11.2025
ór	-11.2025
zioni	-11.2027
्र	-11.2028
▁ос	-11.2029
གྱི་	-11.203
▁što	-11.2033
fici	-11.2033
به	-11.2034
fé	-11.2038
ནས་	-11.2038
UR	-11.204
نج	-11.2041
siku	-11.2041
Ꮻ	-11.2041
▁Про	-11.2042
▁gwau	-11.2044
lash	-11.2044
seng	-11.2044
بات	-11.2044
wanga	-11.2046
▁ಈ	-11.2046
ပ်	-11.2047
sos	-11.2048
▁май	-11.2049
▁bos	-11.2051
تے	-11.2051
▁nyen	-11.2051
িত	-11.2053
▁ав	-11.2056
▁مش	-11.2056
▁chhe	-11.2058
dura	-11.2062
▁ⴰⵙ	-11.2063
wag	-11.2063
▁nta	-11.2066
esh	-11.2066
ям	-11.2066
▁ə	-11.2069
▁jî	-11.2069
CO	-11.2069
▁pono	-11.2072
ρε	-11.2072
вед	-11.2073
emi	-11.2073
him	-11.2074
▁ax	-11.2074
œì	-11.2075
loj	-11.2076
ਬ	-11.2077
▁parla	-11.2078
▁haa	-11.2078
۴	-11.2079
美	-11.2079
▁how	-11.2079
▁sm	-11.2081
▁pig	-11.2081
nts	-11.2083
▁mole	-11.2085
▁anjeun	-11.2085
▁mong	-11.2086
atti	-11.2086
got	-11.2089
▁sabab	-11.2092
▁sed	-11.2093
▁laju	-11.2093
▁jɛ	-11.2096
量	-11.2097
▁lalo	-11.2097
wok	-11.2098
▁Й	-11.2099
▁guru	-11.2099
сс	-11.2099
blo	-11.2099
nyama	-11.2101
▁öz	-11.2103
▁ahụ	-11.2106
ель	-11.2107
maw	-11.2107
ALA	-11.2108
▁kari	-11.2108
دن	-11.2109
Ꭽ	-11.2109
ⵡ	-11.211
ছ	-11.211
▁yg	-11.2111
利	-11.2111
▁Lin	-11.2113
ଶ	-11.2114
▁York	-11.2115
▁kũ	-11.2115
▁batho	-11.2116
melo	-11.2116
אָר	-11.2117
▁л	-11.2117
▁mwana	-11.2117
డ	-11.2117
▁inyu	-11.2121
fil	-11.2121
▁sap	-11.2121
▁badan	-11.2123
▁mpa	-11.2124
тел	-11.2124
য়ে	-11.2124
کار	-11.2124
▁Tam	-11.2124
ᕐᓂ	-11.2127
▁kontra	-11.2127
yay	-11.2128
▁Dé	-11.2128
ɛ̃	-11.213
mano	-11.213
stel	-11.2132
ຈະ	-11.2136
uwaa	-11.2138
ବା	-11.2139
keme	-11.214
jari	-11.2141
ું	-11.2144
▁Τ	-11.2144
رد	-11.2144
▁Bor	-11.2144
▁ebo	-11.2145
شى	-11.2145
▁само	-11.2145
NU	-11.2147
▁nini	-11.2148
ири	-11.2148
rze	-11.2149
ща	-11.2149
▁seri	-11.2149
▁dad	-11.215
▁аб	-11.2151
▁ఇ	-11.2151
κο	-11.2152
▁रे	-11.2153
▁~	-11.2153
▁hee	-11.2156
▁करे	-11.2159
teko	-11.2162
dul	-11.2162
kuy	-11.2165
▁tahun	-11.2165
化	-11.2165
rɑ	-11.2165
ɑn	-11.2166
kasi	-11.2167
n̈e	-11.2167
jama	-11.2168
رە	-11.2169
▁masu	-11.2169
▁max	-11.217
üü	-11.2173
▁zen	-11.2174
▁mindi	-11.2174
▁ڤر	-11.2175
nud	-11.2175
ġi	-11.2177
▁futhi	-11.218
▁ear	-11.2181
dores	-11.2181
▁jí	-11.2182
▁fuu	-11.2182
▁nla	-11.2183
ય	-11.2183
▁tawo	-11.2183
▁Он	-11.2184
▁usu	-11.2184
མི་	-11.2185
▁yoku	-11.2186
▁ئى	-11.2186
त्व	-11.2186
▁سره	-11.2187
▁dunia	-11.2187
уч	-11.2188
▁eiloa	-11.2189
▁kulu	-11.219
áng	-11.2191
bung	-11.2191
想	-11.2193
ɔ̈	-11.2194
joj	-11.2196
▁Pai	-11.2197
▁masi	-11.2198
рас	-11.2198
ଲା	-11.2199
ෝ	-11.2199
▁balan	-11.2199
ណ	-11.2202
▁Ү	-11.2203
ަށް	-11.2203
ენ	-11.2203
ળ	-11.2203
▁ܚ	-11.2205
сте	-11.2205
ี	-11.2205
▁पि	-11.2205
▁i̱	-11.2207
ṛ	-11.2208
▁được	-11.2208
тя	-11.2209
▁Internet	-11.2211
म्‍	-11.2212
▁Chan	-11.2212
ਸ਼	-11.2212
▁beh	-11.2213
པར་	-11.2215
▁ସେ	-11.2215
تٗ	-11.2217
້	-11.2217
ाइ	-11.2217
▁کم	-11.2218
▁baya	-11.2221
Ga	-11.2222
▁tlha	-11.2223
longo	-11.2223
▁noma	-11.2224
▁Dh	-11.2224
ො	-11.2224
▁dza	-11.2226
चो	-11.2227
bati	-11.2227
ځ	-11.2229
ynin	-11.223
maga	-11.2231
ыгъ	-11.2233
▁koy	-11.2234
▁tâng	-11.2234
puta	-11.2234
ûr	-11.2237
fit	-11.2238
гъо	-11.2238
▁YA	-11.2238
yama	-11.2238
ێک	-11.224
ئی	-11.224
▁NI	-11.224
▁zheng	-11.2244
Hi	-11.2244
▁now	-11.2244
▁fri	-11.2244
▁Ре	-11.2245
▁खः	-11.2247
▁الش	-11.2247
▁liu	-11.2247
yaya	-11.2249
аты	-11.2249
▁Taita	-11.2251
▁hodi	-11.2253
ья	-11.2254
ဏ	-11.2255
▁dödö	-11.2255
ור	-11.2255
▁Eri	-11.2255
ধ	-11.2256
tě	-11.2257
▁mena	-11.2257
yana	-11.2258
▁Gun	-11.2258
て	-11.2259
▁itech	-11.2259
▁എ	-11.2259
аан	-11.2259
OL	-11.2261
kej	-11.2264
▁slu	-11.2264
拉	-11.2264
▁tare	-11.2266
kale	-11.2267
ሲ	-11.2267
▁semua	-11.2271
▁uit	-11.2271
o̒	-11.2273
lamu	-11.2276
▁sui	-11.2277
▁राज	-11.2277
▁amun	-11.2278
pele	-11.2279
ული	-11.228
▁sele	-11.228
jaa	-11.2281
yya	-11.2281
▁hani	-11.2282
sela	-11.2284
▁Ou	-11.2286
ລະ	-11.2287
▁diye	-11.2288
▁waya	-11.229
ringi	-11.2291
▁badi	-11.2291
יל	-11.2292
اري	-11.2294
த்து	-11.2295
kamba	-11.2296
ᖅᑐ	-11.2297
jy	-11.2298
ନା	-11.23
▁ebeno	-11.2301
▁gene	-11.2301
oki	-11.2301
Gu	-11.2301
▁putar	-11.2302
ໄ	-11.2303
▁rek	-11.2303
▁ud	-11.2303
▁fla	-11.2303
▁să	-11.2304
كون	-11.2304
ⴰⵙ	-11.2305
ܵܐ	-11.2305
▁ary	-11.2305
ᓚᐅ	-11.2306
▁شو	-11.2306
▁ec	-11.2307
期	-11.2307
▁від	-11.2307
дик	-11.2308
ལས་	-11.2309
wari	-11.2309
zik	-11.2309
▁Mala	-11.2311
ament	-11.2311
ða	-11.2311
▁gaan	-11.2311
▁ہ	-11.2311
hamba	-11.2313
▁utia	-11.2314
hka	-11.2315
▁mese	-11.2318
มี	-11.2318
්	-11.2318
daw	-11.232
ngela	-11.232
▁sib	-11.2323
уй	-11.2323
гал	-11.2324
▁φ	-11.2325
pish	-11.2326
న్	-11.2326
хы	-11.2326
೦	-11.2327
dap	-11.2328
ތި	-11.2328
▁tuj	-11.2329
▁عمل	-11.233
▁সা	-11.2331
CE	-11.2332
kong	-11.2333
ço	-11.2333
▁ओकर	-11.2334
▁akwa	-11.234
were	-11.234
muk	-11.2341
▁pho	-11.2342
तः	-11.2342
▁rupa	-11.2343
▁йи	-11.2343
▁вал	-11.2343
ная	-11.2344
sih	-11.2345
▁tic	-11.2345
▁kang	-11.2345
▁èk	-11.2346
▁nong	-11.2346
▁kel	-11.2346
ッ	-11.2347
rni	-11.2347
ီ	-11.2348
पुर	-11.2349
▁cat	-11.235
▁mi̱	-11.2351
ës	-11.2352
▁mie	-11.2355
▁ಪ್ರ	-11.2356
ഹ	-11.2356
▁mem	-11.2357
▁sega	-11.2358
ṛ	-11.2359
ksa	-11.2359
هي	-11.2359
nii	-11.2359
タ	-11.236
▁ngkai	-11.236
▁ⵉⵙ	-11.236
ਵਾ	-11.236
сене	-11.2361
રા	-11.2362
ksyon	-11.2364
ност	-11.2364
އަށް	-11.2364
yee	-11.2365
lub	-11.2369
՝	-11.2369
ކޮށް	-11.2369
▁už	-11.237
ⵛ	-11.2371
于	-11.2372
▁Kun	-11.2373
▁laik	-11.2374
▁loka	-11.2374
可以	-11.2374
CH	-11.2375
▁ся	-11.2375
lyq	-11.2376
सु	-11.2377
▁Hindi	-11.2377
llar	-11.2377
▁mej	-11.2379
ጉ	-11.2379
▁२	-11.238
▁sín	-11.238
ັກ	-11.2382
▁τὸν	-11.2383
▁نی	-11.2384
nym	-11.2386
ipi	-11.2387
▁ɖo	-11.2387
ಲ್ಲ	-11.2387
▁الف	-11.2389
dī	-11.2389
▁गेल	-11.239
မိူင်း	-11.239
▁بەر	-11.2392
상	-11.2395
▁face	-11.2395
raga	-11.2396
arã	-11.2396
ହ	-11.2399
▁kà	-11.2399
post	-11.2401
zat	-11.2402
һан	-11.2402
tig	-11.2402
န်း	-11.2403
gabo	-11.2403
বু	-11.2403
▁ɓe	-11.2404
▁wol	-11.2404
ज़	-11.2405
▁tumen	-11.2405
▁yâ	-11.2406
atan	-11.2408
▁Isi	-11.2409
ၼႆႉ	-11.241
ভ	-11.241
▁ruh	-11.241
▁annan	-11.2411
▁Africa	-11.2411
ٹی	-11.2412
▁yer	-11.2412
▁kwo	-11.2413
ঙ	-11.2414
▁wada	-11.2415
▁oso	-11.2415
▁Afrika	-11.2415
▁sthn	-11.2416
នឹង	-11.2416
▁دان	-11.2416
▁Batak	-11.2417
wiri	-11.2417
▁nila	-11.2418
TS	-11.242
▁हमरा	-11.242
ší	-11.2422
ικ	-11.2422
▁Ef	-11.2422
holo	-11.2422
hing	-11.2423
ნი	-11.2423
▁maso	-11.2423
▁هر	-11.2424
):	-11.2425
所	-11.2425
гийн	-11.2426
اط	-11.2426
qan	-11.2427
lugu	-11.2429
▁dugu	-11.243
▁let	-11.243
ల్	-11.243
UM	-11.243
မႃး	-11.2432
通	-11.2433
ering	-11.2433
ρι	-11.2433
ˆ˜	-11.2434
▁hich	-11.2436
thai	-11.2438
ciones	-11.2438
ხ	-11.2439
भाव	-11.2439
▁Ө	-11.2439
ܬܐ	-11.244
kuk	-11.2442
Ꞌ	-11.2444
ىم	-11.2444
o̠	-11.2445
▁eli	-11.2445
▁muku	-11.2445
ۈ	-11.2446
▁bhiq	-11.2447
wk	-11.2448
fuɛ	-11.2448
▁naya	-11.2449
▁sikan	-11.2454
体	-11.2455
ान	-11.2455
וי	-11.2456
ู	-11.2457
メ	-11.2458
हीं	-11.2459
צי	-11.2459
▁tui	-11.246
еч	-11.246
▁godine	-11.2461
▁prop	-11.2461
မူ	-11.2462
▁Shu	-11.2464
▁nimbe	-11.2465
قي	-11.2465
מי	-11.2466
kou	-11.2466
▁নি	-11.2467
ખ	-11.2468
▁nir	-11.2468
meli	-11.2468
vě	-11.2468
tlha	-11.2469
ээр	-11.247
مت	-11.2471
یس	-11.2471
▁Má	-11.2474
ril	-11.2475
ދި	-11.2475
ᕙ	-11.2475
ɨrɨ	-11.2476
▁Leza	-11.2477
эп	-11.2477
▁gant	-11.2477
▁ಕಾ	-11.2477
نان	-11.2481
ool	-11.2481
▁boleh	-11.2481
▁Hel	-11.2482
▁sport	-11.2482
▁pentru	-11.2482
kadi	-11.2483
▁lê	-11.2484
лын	-11.2485
კ	-11.2486
▁Mae	-11.2488
ique	-11.249
ống	-11.249
▁neh	-11.2491
▁sko	-11.2493
에서	-11.2496
▁jô	-11.2497
ᕆ	-11.2497
▁end	-11.2498
เป็น	-11.2498
▁epwe	-11.2499
ngai	-11.25
对	-11.2501
kasa	-11.2501
bles	-11.2501
▁Mis	-11.2501
rumu	-11.2502
▁pà	-11.2503
▁tih	-11.2503
redi	-11.2503
ọn̄	-11.2504
▁Kodi	-11.2504
tï	-11.2505
sht	-11.2506
लें	-11.2506
ቶ	-11.2506
લા	-11.2506
ቸው	-11.2507
kura	-11.2508
▁Bondyé	-11.2508
▁دې	-11.2509
اخ	-11.251
¦¬	-11.2511
ロ	-11.2512
ଜ	-11.2512
akin	-11.2514
द्ध	-11.2515
▁ڪري	-11.2515
ors	-11.2516
ürü	-11.2517
▁aza	-11.2517
RO	-11.2517
▁wea	-11.2518
ন্ত	-11.2518
cre	-11.2519
eye	-11.252
▁ⵜⴰⵏ	-11.2524
ዛ	-11.2525
▁kite	-11.2526
ыгъэ	-11.2527
צ	-11.2527
óng	-11.2527
Mateo	-11.2528
eⁿ	-11.2528
унда	-11.2528
▁pran	-11.253
▁ⵢ	-11.2531
ሙ	-11.2531
òl	-11.2533
يات	-11.2533
▁bô	-11.2535
asta	-11.2536
▁sija	-11.2536
ŏ	-11.2536
¾	-11.2537
zal	-11.2539
टि	-11.2539
ջ	-11.2539
▁एगो	-11.254
▁travay	-11.254
▁adam	-11.2541
▁Ве	-11.2541
стра	-11.2542
rì	-11.2543
קו	-11.2543
yele	-11.2544
▁jy	-11.2545
▁déi	-11.2546
kik	-11.2546
بل	-11.2547
चार	-11.2548
ವಾ	-11.2549
ണ്ട	-11.2549
араб	-11.255
▁gak	-11.255
▁ח	-11.255
ಯ್	-11.255
асы	-11.2553
jque	-11.2555
miento	-11.2556
raq	-11.2556
▁ਆ	-11.2557
▁гар	-11.2558
kw	-11.2558
Ro	-11.2559
ंच	-11.256
▁nso	-11.2561
яв	-11.2562
kie	-11.2562
▁uas	-11.2563
▁sheng	-11.2564
oplal	-11.2565
masa	-11.2565
▁sä	-11.2566
▁уж	-11.2567
▁ಸಾ	-11.2568
алъ	-11.257
▁Mandarin	-11.2571
tje	-11.2572
kich	-11.2573
ائی	-11.2573
miz	-11.2573
ST	-11.2573
▁ig	-11.2574
יו	-11.2575
try	-11.2575
piya	-11.2576
▁सरकार	-11.2576
liwa	-11.2576
вл	-11.2577
▁Umu	-11.2578
mw	-11.2578
▁ಹ	-11.2579
▁bö	-11.2581
lop	-11.2583
бі	-11.2584
ཡ	-11.2585
gum	-11.2586
ވި	-11.2588
wisa	-11.259
▁ವಿ	-11.259
▁עס	-11.259
ייַ	-11.2591
▁Previous	-11.2591
▁સ	-11.2591
atik	-11.2592
יס	-11.2593
ibe	-11.2596
alis	-11.2596
self	-11.2597
lyn	-11.2599
cce	-11.26
pio	-11.26
相	-11.26
том	-11.2601
▁هە	-11.2602
▁ahu	-11.2605
cabe	-11.2605
siz	-11.2605
▁Ис	-11.2605
▁बाद	-11.2606
▁бук	-11.2606
Α	-11.2607
nolo	-11.2612
ద	-11.2613
▁vho	-11.2614
rite	-11.2614
tlaj	-11.2614
ỗ	-11.2616
▁ਹਨ	-11.2616
▁pris	-11.2617
▁€	-11.2619
▁مە	-11.2619
▁ree	-11.262
pash	-11.262
▁xb	-11.2624
▁zin	-11.2624
▁oleh	-11.2624
▁الك	-11.2625
סי	-11.2625
▁चल	-11.2627
▁школа	-11.2628
ሃ	-11.263
yaj	-11.263
▁سەر	-11.263
ין	-11.263
imiz	-11.263
▁уш	-11.263
ingi	-11.2631
▁ро	-11.2632
dyr	-11.2633
tej	-11.2633
pula	-11.2633
▁Tau	-11.2635
had	-11.2635
▁Mose	-11.2636
kre	-11.2636
▁ਇਸ	-11.2637
▁gua	-11.2637
▁চা	-11.2641
sub	-11.2642
▁mahmah	-11.2646
дзе	-11.2648
ىنى	-11.2648
▁що	-11.2649
dawa	-11.2649
ghu	-11.2649
▁mú	-11.2649
יר	-11.2652
تان	-11.2653
شن	-11.2653
ýy	-11.2654
ލާ	-11.2658
mbar	-11.2659
▁normal	-11.2659
▁வி	-11.2659
مە	-11.266
mbwa	-11.2661
▁Anda	-11.2662
▁anma	-11.2662
riz	-11.2663
зі	-11.2663
ые	-11.2663
rĩ	-11.2664
tene	-11.2664
▁Sol	-11.2665
sional	-11.2665
▁xan	-11.2665
▁kamu	-11.2666
▁Aga	-11.2669
▁کل	-11.2669
ttan	-11.2669
አ	-11.267
linga	-11.2672
▁jag	-11.2674
تە	-11.2675
ائي	-11.2677
》	-11.2678
klar	-11.268
▁wek	-11.268
▁Ẹ	-11.2682
▁معدن	-11.2683
▁сам	-11.2685
キ	-11.2686
быт	-11.2686
ޫ	-11.2688
ĩa	-11.2691
ނެ	-11.2691
ް	-11.2691
▁gol	-11.2693
ês	-11.2694
ಕಾ	-11.2696
ළ	-11.2696
शि	-11.2697
▁oba	-11.2698
кер	-11.27
▁mone	-11.2702
լ	-11.2702
ዩ	-11.2703
tike	-11.2703
мс	-11.2706
ավ	-11.2706
▁юр	-11.2707
TO	-11.271
risa	-11.2711
عان	-11.2713
▁liber	-11.2714
lot	-11.2714
▁kũ	-11.2714
▁Ame	-11.2715
ех	-11.2716
טי	-11.2717
ള	-11.2718
▁yena	-11.2719
▁Aka	-11.2719
比	-11.2719
الي	-11.272
nych	-11.272
▁ado	-11.2721
bran	-11.2722
▁wet	-11.2722
▁त्या	-11.2723
▁яз	-11.2724
kpɔ	-11.2724
itas	-11.2725
эхэр	-11.2726
▁سن	-11.2727
▁jira	-11.2727
全	-11.2728
gla	-11.2728
《	-11.273
ûn	-11.273
▁кам	-11.2731
▁мя	-11.2731
¿	-11.2736
ikka	-11.2736
▁tayo	-11.2738
ệ	-11.2739
▁מיט	-11.274
ња	-11.2741
▁wè	-11.2743
يف	-11.2743
▁Yiang	-11.2743
▁gor	-11.2744
alan	-11.2745
▁ils	-11.2748
▁taem	-11.275
nah	-11.2751
wah	-11.2751
ᒍ	-11.2752
▁Жа	-11.2752
▁hand	-11.2752
shte	-11.2753
▁Tak	-11.2754
ৌ	-11.2754
ಶ	-11.2756
şi	-11.2756
loga	-11.2758
▁ङा	-11.2758
larda	-11.2758
sira	-11.276
tiro	-11.2761
▁breast	-11.2762
▁Poli	-11.2762
▁dä	-11.2762
▁xc	-11.2762
dụ	-11.2763
▁sran	-11.2764
▁viv	-11.2764
ije	-11.2765
后	-11.2766
▁ለ	-11.2768
▁augwali	-11.2769
джэ	-11.277
▁Шо	-11.277
心	-11.2775
buri	-11.2776
wis	-11.2776
tag	-11.2776
▁είναι	-11.2777
Ö	-11.2777
misi	-11.2782
كو	-11.2783
lọ	-11.2786
энэ	-11.2787
poli	-11.2788
▁nyɛ	-11.2789
AM	-11.2789
▁Sun	-11.2792
ނި	-11.2792
sión	-11.2792
žu	-11.2793
уру	-11.2794
miayi	-11.2794
влак	-11.2796
rip	-11.2796
ӓш	-11.2798
old	-11.2798
▁тӓ	-11.2801
ޔާ	-11.2802
tonu	-11.2803
▁ط	-11.2806
Va	-11.2807
▁sale	-11.2808
شان	-11.2808
osh	-11.2809
▁kpe	-11.2809
▁چا	-11.2809
▁Don	-11.281
AC	-11.2811
▁jer	-11.2813
hwa	-11.2814
▁доно	-11.2815
▁huo	-11.2816
mbula	-11.2819
IA	-11.282
Dummad	-11.2822
menti	-11.2823
▁сер	-11.2823
▁já	-11.2824
▁pasal	-11.2824
ɔgɔ	-11.2824
▁پار	-11.2826
▁nuo	-11.2826
ыште	-11.2826
▁prin	-11.2827
ವು	-11.2828
▁Namibia	-11.2829
kú	-11.283
▁wê	-11.283
کھ	-11.283
▁haba	-11.283
futa	-11.2832
މާ	-11.2832
去	-11.2832
ļo̧k	-11.2832
▁gá	-11.2832
▁gabe	-11.2832
ɛkɛ	-11.2833
ago	-11.2833
anak	-11.2833
яз	-11.2835
▁শ	-11.2836
海	-11.2836
gram	-11.2836
హ	-11.2836
▁जब	-11.2837
斯	-11.2837
GO	-11.2837
▁auf	-11.2837
▁chik	-11.2838
ент	-11.2838
▁ahpw	-11.2838
▁хүн	-11.2841
ក្នុង	-11.2841
roro	-11.2842
▁एह	-11.2842
▁yó	-11.2843
▁cang	-11.2844
ntar	-11.2845
▁sampeyan	-11.2846
ļa	-11.2846
ಂದ	-11.2849
▁jk	-11.2849
ତି	-11.285
ndang	-11.2852
ैत	-11.2853
ult	-11.2854
▁ã	-11.2855
▁бала	-11.2855
မၤ	-11.2856
ort	-11.2857
▁кал	-11.286
ена	-11.2861
стэ	-11.2861
▁rén	-11.2862
nqui	-11.2863
▁fam	-11.2866
sita	-11.2866
+,	-11.2867
eze	-11.2868
▁trong	-11.2868
▁kgo	-11.287
ውን	-11.2871
cil	-11.2871
bô	-11.2872
▁Santo	-11.2872
פי	-11.2873
ения	-11.2873
book	-11.2873
lly	-11.2874
susu	-11.2876
▁yali	-11.2877
caya	-11.2877
ீ	-11.2878
▁προ	-11.2879
inum	-11.2879
▁тил	-11.288
▁diak	-11.288
sab	-11.288
▁Masa	-11.2882
▁ᐊᒻᒪᓗ	-11.2882
▁tja	-11.2882
PE	-11.2884
tê	-11.2885
▁kō	-11.2886
AD	-11.2886
ила	-11.2887
ызы	-11.2887
▁Pidgin	-11.2887
▁kuch	-11.2887
▁алып	-11.289
yp	-11.289
▁keda	-11.2891
kui	-11.2891
ას	-11.2892
naya	-11.2892
▁Sur	-11.2893
▁pw	-11.2895
▁ପ୍ର	-11.2895
வி	-11.2895
▁Galilea	-11.2895
▁prote	-11.2896
▁pipul	-11.2897
▁хам	-11.2899
▁tax	-11.2899
▁jau	-11.2901
▁Isra	-11.2901
▁kutsi	-11.2901
λη	-11.2901
oho	-11.2901
▁nko	-11.2902
•„	-11.2902
cano	-11.2902
▁ше	-11.2902
cción	-11.2903
wikipedia	-11.2903
tna	-11.2904
ල්	-11.2906
▁আৰু	-11.2906
λι	-11.2907
▁fami	-11.2907
▁нас	-11.2908
nad	-11.2908
ᔅ	-11.2908
yá	-11.2909
▁अर	-11.291
achadh	-11.291
lige	-11.2911
kamu	-11.2911
▁kury	-11.2913
ခံ	-11.2913
▁aad	-11.2913
Ꮙ	-11.2914
koro	-11.2914
▁Are	-11.2915
nwa	-11.2916
banga	-11.2916
▁Era	-11.2918
▁pom	-11.2919
▁yol	-11.2919
iyu	-11.292
аст	-11.2921
▁bisi	-11.2921
▁fasi	-11.2922
▁बन	-11.2923
ator	-11.2923
▁nsi	-11.2924
رُو	-11.2925
huku	-11.2925
▁sini	-11.2925
▁ს	-11.2926
лган	-11.2927
▁महा	-11.2927
▁%	-11.2928
amh	-11.293
ᓐᓂ	-11.293
वार	-11.293
ܨ	-11.2932
▁кас	-11.2933
తి	-11.2934
къу	-11.2934
wata	-11.2936
▁agai	-11.2937
▁hara	-11.2937
▁cɛ	-11.2937
kken	-11.2937
nọ	-11.294
▁тор	-11.294
▁n̄kpọ	-11.2942
ntang	-11.2942
▁omwe	-11.2943
जन	-11.2944
▁PA	-11.2945
რი	-11.2945
ურ	-11.2945
мб	-11.2946
▁--	-11.2947
ހަ	-11.2947
▁വി	-11.2947
▁ა	-11.2947
▁Ча	-11.2948
▁want	-11.2949
די	-11.295
manu	-11.295
אל	-11.295
▁kane	-11.2953
▁Ай	-11.2953
мей	-11.2954
▁gün	-11.2954
̄	-11.2956
▁Tre	-11.2956
▁Yehofa	-11.2956
eks	-11.2958
job	-11.2959
handa	-11.2959
▁nok	-11.296
▁period	-11.296
dou	-11.2961
▁ngal	-11.2961
Ᏼ	-11.2961
ندو	-11.2962
ಜ	-11.2962
ını	-11.2963
ldi	-11.2966
▁Aria	-11.2966
tán	-11.2967
▁төр	-11.2967
Ꮳ	-11.2967
ⴹ	-11.2968
ID	-11.297
suh	-11.2971
▁сол	-11.2972
nap	-11.2974
▁jay	-11.2975
pacha	-11.2975
▁איר	-11.2976
▁яш	-11.2976
taw	-11.2977
▁afa	-11.2977
▁kundi	-11.2977
▁jara	-11.2978
hulu	-11.2978
▁झ	-11.2978
▁situ	-11.2978
▁onye	-11.2979
!!!	-11.298
▁gai	-11.298
▁час	-11.2981
Nga	-11.2981
ဢ	-11.2982
lj	-11.2983
GU	-11.2983
▁dze	-11.2984
ِنْ	-11.2984
▁paw	-11.2986
▁taba	-11.2987
lê	-11.2989
式	-11.299
زار	-11.2991
hilo	-11.2992
ິ	-11.2992
▁І	-11.2992
dil	-11.2992
gei	-11.2994
vala	-11.2995
ерге	-11.2996
స	-11.2998
yaw	-11.2999
▁ע	-11.2999
ευ	-11.2999
zio	-11.2999
chia	-11.3
ania	-11.3001
zim	-11.3002
▁iso	-11.3004
▁Yeova	-11.3005
къо	-11.3007
sid	-11.301
ູ	-11.3011
rqan	-11.3011
▁https	-11.3012
▁tanalo	-11.3013
▁रूप	-11.3013
▁pyr	-11.3015
colo	-11.3016
ધ	-11.3017
ارت	-11.3017
ි	-11.3019
▁mende	-11.3019
tă	-11.302
▁પ્ર	-11.3022
▁biri	-11.3023
▁लग	-11.3025
▁Hal	-11.3026
这	-11.3026
MO	-11.3026
ric	-11.3026
▁ಜಾ	-11.3027
▁yaj	-11.3027
▁ń	-11.3027
Š	-11.3027
▁Hotel	-11.3028
▁gagwe	-11.3029
▁ew	-11.303
▁эз	-11.3031
▁roma	-11.3031
чо	-11.3032
рс	-11.3033
▁आं	-11.3033
obu	-11.3034
فت	-11.3035
ピ	-11.3036
سر	-11.304
५	-11.3043
كە	-11.3043
rod	-11.3044
▁rima	-11.3044
×	-11.3045
▁apu	-11.3045
lile	-11.3045
▁kĩ	-11.3045
itai	-11.3046
▁Ok	-11.3046
гор	-11.3047
ծ	-11.3047
▁bolo	-11.3049
ôl	-11.3049
▁svi	-11.305
lene	-11.305
ndro	-11.305
▁Thi	-11.305
▁ninga	-11.3053
۹	-11.3055
rte	-11.3056
ndaka	-11.3057
പ്പ	-11.3058
Ꮟ	-11.3058
کس	-11.3058
রো	-11.3059
golo	-11.3059
ニ	-11.306
ŋo	-11.3061
ły	-11.3061
म्ह	-11.3062
١	-11.3063
gula	-11.3065
ਖ	-11.3066
হা	-11.3067
lý	-11.3069
suk	-11.3072
dî	-11.3074
ᔨ	-11.3075
ارا	-11.3075
▁epa	-11.3076
▁ła	-11.3076
koj	-11.3077
▁Gen	-11.3078
ၚ	-11.3079
▁name	-11.3081
mui	-11.3082
сә	-11.3083
▁land	-11.3084
ਵ	-11.3084
དེ་	-11.3085
wI	-11.3088
▁गइल	-11.3088
chuk	-11.3089
▁tuꞌ	-11.3089
ತ್ತ	-11.309
▁Су	-11.3091
ranga	-11.3093
▁Ꮧ	-11.3094
▁vid	-11.3094
▁пыр	-11.3094
шан	-11.3095
ေရ	-11.3096
▁yap	-11.3097
▁Video	-11.3098
dila	-11.3098
rib	-11.3099
▁ně	-11.31
▁mbeni	-11.3102
▁beno	-11.3102
szy	-11.3105
▁Hor	-11.3105
​​	-11.3105
▁Kra	-11.3105
оў	-11.3105
オ	-11.3109
himo	-11.3109
эс	-11.3109
▁لی	-11.311
▁Hol	-11.3111
\_	-11.3111
لَ	-11.3112
Man	-11.3114
ndung	-11.3115
liko	-11.3115
▁http	-11.3116
مَ	-11.3118
▁Italian	-11.3118
YO	-11.3119
xik	-11.3119
ⴰⴷ	-11.312
tivo	-11.312
giya	-11.3121
▁pulu	-11.3121
▁cit	-11.3123
مر	-11.3123
▁Abu	-11.3124
ُو	-11.3124
ಳಿ	-11.3126
އެއް	-11.3126
▁është	-11.3129
▁лу	-11.3129
▁نظر	-11.313
zɩ	-11.3132
▁panag	-11.3133
ச	-11.3137
ގަ	-11.3138
katu	-11.314
ಗಳ	-11.314
▁dadi	-11.3142
LI	-11.3144
၁	-11.3146
▁Uni	-11.3147
▁fà	-11.3148
vhi	-11.3148
▁yɛn	-11.3148
▁шы	-11.3151
hela	-11.3153
▁yumi	-11.3154
̍h	-11.3155
▁LA	-11.3155
geri	-11.3156
▁imo	-11.3156
uer	-11.3157
لەر	-11.3157
كي	-11.3159
等	-11.3161
▁kila	-11.3161
▁Dius	-11.3162
▁sle	-11.3163
bwino	-11.3164
▁`	-11.3164
हो	-11.3164
tisa	-11.3166
▁чер	-11.3168
ович	-11.3168
אי	-11.3168
▁~~~~	-11.3169
ies	-11.3169
WE	-11.3169
્યા	-11.3169
:​	-11.317
наң	-11.3173
▁kuya	-11.3173
▁ста	-11.3173
▁hereva	-11.3174
▁зна	-11.3175
▁συν	-11.3175
▁Tro	-11.3176
rẹ	-11.3179
गे	-11.3179
३	-11.3182
▁kwaye	-11.3184
pone	-11.3184
▁nl	-11.3184
▁moni	-11.3185
stig	-11.3185
ope	-11.3186
وری	-11.3186
china	-11.3187
бул	-11.3187
▁kera	-11.3187
▁जी	-11.3188
rini	-11.3188
jú	-11.319
▁פֿאַר	-11.3191
▁Во	-11.3191
▁Mata	-11.3193
ტი	-11.3195
ئن	-11.3195
hos	-11.3197
▁marang	-11.3199
bini	-11.3201
été	-11.3202
▁nasa	-11.3202
lô	-11.3203
jä	-11.3205
kih	-11.3205
mond	-11.3206
яй	-11.3206
▁girdi	-11.3206
▁pam	-11.3206
kuma	-11.321
даш	-11.3211
▁mene	-11.3212
nö	-11.3212
wili	-11.3216
eer	-11.3217
۸	-11.3217
ଧ	-11.3218
シ	-11.3218
▁Od	-11.3218
иле	-11.3219
▁ગ	-11.3221
▁sinn	-11.3223
▁dipa	-11.3224
lini	-11.3225
ኑ	-11.3226
ďa	-11.3226
иль	-11.3226
கள்	-11.3228
اۋ	-11.3228
tsɔ	-11.3229
▁ہی	-11.323
▁Iya	-11.323
вод	-11.323
▁aju	-11.323
ەم	-11.3231
ZA	-11.3231
▁khaw	-11.3232
▁bada	-11.3233
ック	-11.3233
¢	-11.3234
▁ನ	-11.3234
▁một	-11.3234
▁aý	-11.3236
zor	-11.3241
wee	-11.3242
rho	-11.3243
ɔ̃	-11.3243
▁ges	-11.3243
ٗ	-11.3243
صل	-11.3244
heid	-11.3244
api	-11.3245
▁baha	-11.3246
тэй	-11.3246
▁iray	-11.3247
тра	-11.3247
buru	-11.3247
nani	-11.3247
▁gbɛ	-11.3247
ню	-11.3248
tâ	-11.3248
дим	-11.3249
AP	-11.325
ense	-11.325
▁β	-11.325
!»	-11.3251
▁Myanmar	-11.3251
Cha	-11.3251
▁Atua	-11.3251
ᕈ	-11.3252
▁به‌	-11.3254
▁турган	-11.3255
▁leo	-11.3255
نْ	-11.3256
rv	-11.3256
▁danu	-11.3257
رک	-11.3259
anka	-11.3259
SI	-11.3262
τά	-11.3262
bie	-11.3262
tea	-11.3262
pper	-11.3264
▁მი	-11.3264
▁аст	-11.3264
▁produk	-11.3265
naw	-11.3266
▁eku	-11.3267
ाई	-11.3267
lma	-11.3268
angi	-11.3269
vou	-11.3271
▁grande	-11.3272
开	-11.3273
rro	-11.3274
▁pá	-11.3274
▁Twi	-11.3274
रण	-11.3274
▁xiao	-11.3277
▁ἐν	-11.3277
जि	-11.3278
▁ඉ	-11.3278
әл	-11.328
▁age	-11.328
▁lala	-11.3282
▁sidea	-11.3283
▁þa	-11.3283
HE	-11.3283
hum	-11.3284
▁लोक	-11.3285
anza	-11.3285
unna	-11.3285
ܶ	-11.3286
▁franc	-11.3286
ਧ	-11.3286
sent	-11.3287
▁ነ	-11.3289
▁цо	-11.329
▁TE	-11.3291
▁uga	-11.3291
▁mega	-11.3292
હ	-11.3292
….	-11.3292
▁ducu	-11.3293
▁ун	-11.3297
▁турар	-11.3297
Un	-11.3298
▁article	-11.3298
▁Ви	-11.3298
▁reco	-11.3298
nyan	-11.3298
ndum	-11.3299
tey	-11.33
lid	-11.33
nman	-11.3301
▁mora	-11.3302
▁susu	-11.3304
มา	-11.3305
▁LE	-11.3306
▁piipl	-11.3306
ebi	-11.3306
טער	-11.3306
VA	-11.3308
里	-11.3309
▁hö	-11.3309
abe	-11.3309
▁mereka	-11.3312
koa	-11.3313
νο	-11.3313
owo	-11.3314
▁Bel	-11.3317
▁deh	-11.3319
▁የሚ	-11.3319
▁ntse	-11.332
kei	-11.332
эри	-11.3321
rf	-11.3322
ై	-11.3323
▁doon	-11.3324
▁vaj	-11.3324
▁Эр	-11.3324
גע	-11.3325
éé	-11.3326
▁lawm	-11.3327
▁olgeta	-11.3328
▁Ez	-11.3329
▁ਨਾਲ	-11.3329
zem	-11.333
وك	-11.3332
mna	-11.3333
▁kate	-11.3333
eld	-11.3335
raha	-11.3336
▁thin	-11.3336
▁Ele	-11.3336
▁pē	-11.3338
ului	-11.334
▁kmo	-11.334
▁jei	-11.3342
ɨnɨ	-11.3344
▁vara	-11.3344
าย	-11.3345
▁mbira	-11.3346
▁Job	-11.3346
▁Vu	-11.3347
ኖ	-11.3347
ލަ	-11.3348
pih	-11.3349
ƒ	-11.335
▁सम	-11.335
ቕ	-11.335
lep	-11.335
ⴱ	-11.335
monae	-11.3351
▁pā	-11.3351
mbali	-11.3351
skog	-11.3352
▁ndzi	-11.3354
mmen	-11.3355
өл	-11.3357
▁جان	-11.3357
ⵉⵔ	-11.3359
▁হা	-11.3361
ег	-11.3361
kuta	-11.3361
mira	-11.3362
ὴ	-11.3362
ձ	-11.3363
▁Pala	-11.3364
tya	-11.3365
▁kato	-11.3366
▁temp	-11.3366
alfabeto	-11.3367
giri	-11.3367
▁eru	-11.3368
tō	-11.3368
▁pisi	-11.3371
lembe	-11.3371
ék	-11.3372
నే	-11.3372
▁Jehofa	-11.3372
▁लाग	-11.3372
ით	-11.3373
ओ	-11.3375
rp	-11.3377
▁zve	-11.3377
▁lut	-11.3377
Ꮿ	-11.3377
ข	-11.3379
▁pah	-11.3379
▁liang	-11.338
ޔަ	-11.338
▁эки	-11.338
sii	-11.3381
naj	-11.3381
ꨀ	-11.3383
▁với	-11.3383
າດ	-11.3384
▁mike	-11.3385
ылы	-11.3385
▁campa	-11.3386
▁esse	-11.3386
וב	-11.3388
▁yr	-11.3389
▁पनि	-11.3389
▁там	-11.3391
▁করে	-11.3391
ӕй	-11.3391
tapis	-11.3391
таш	-11.3392
প্	-11.3393
тың	-11.3393
бек	-11.3394
▁لم	-11.3394
Ọ	-11.3395
ные	-11.3396
▁nuh	-11.3396
ssan	-11.3399
▁چھ	-11.3399
মান	-11.3402
سو	-11.3402
ttle	-11.3403
मु	-11.3403
ping	-11.3405
కి	-11.3405
rug	-11.3405
▁MU	-11.3406
ED	-11.3406
stic	-11.3408
လိ	-11.341
▁බ	-11.3411
ದಾ	-11.3411
əl	-11.3412
Я	-11.3412
nnan	-11.3412
▁Bat	-11.3413
siga	-11.3414
ät	-11.3414
bino	-11.3415
▁кара	-11.3415
▁dö	-11.3416
▁Nin	-11.3416
mbé	-11.3417
אַנ	-11.3418
पर	-11.3419
vare	-11.3421
▁xjal	-11.3426
▁teng	-11.3428
nça	-11.3428
थे	-11.3429
▁studi	-11.3429
▁sawi	-11.343
▁sventa	-11.343
▁проект	-11.343
▁Kas	-11.3433
▁Fon	-11.3434
▁جن	-11.3434
раг	-11.3436
ove	-11.3438
▁buka	-11.3439
西	-11.3439
원	-11.3442
▁пер	-11.3442
dè	-11.3443
zam	-11.3443
सर	-11.3443
ಮಾ	-11.3445
ულ	-11.3445
▁যে	-11.3445
miyo	-11.3445
על	-11.3445
каз	-11.3445
▁lẹ	-11.3445
ڭ	-11.3446
gawa	-11.3446
eder	-11.3448
▁shou	-11.3449
▁Бир	-11.345
iꞌ	-11.345
▁kanu	-11.345
isse	-11.3451
đa	-11.3451
vim	-11.3452
انو	-11.3452
диз	-11.3453
▁twi	-11.3454
lē	-11.3455
動	-11.3456
▁kasu	-11.3456
▁Fran	-11.3456
molo	-11.3457
zvo	-11.3459
yä	-11.3459
ḡi	-11.346
▁muh	-11.3462
);	-11.3462
alam	-11.3463
элэ	-11.3463
▁axi	-11.3464
▁katak	-11.3464
туу	-11.3464
әй	-11.3464
ɗi	-11.3465
▁ⴰⵏ	-11.3465
▁made	-11.3466
▁как	-11.3466
gens	-11.3467
عى	-11.3467
▁lenguaje	-11.3467
ezi	-11.3468
▁Mé	-11.3468
ු	-11.3469
tual	-11.3471
ை	-11.3471
sī	-11.3471
pwe	-11.3472
▁sent	-11.3472
▁nū	-11.3473
ės	-11.3473
▁Minister	-11.3474
▁↑	-11.3474
▁tawe	-11.3475
▁hindi	-11.3475
ýa	-11.3475
▁cir	-11.3476
εται	-11.3477
▁Ŋ	-11.3477
rda	-11.3478
lgan	-11.3478
▁bosong	-11.3479
▁Ib	-11.348
လို	-11.3481
۲	-11.3481
▁уй	-11.3487
lech	-11.3488
لة	-11.3488
pè	-11.3489
保	-11.3489
▁کیا	-11.349
▁Ata	-11.3491
ཀ	-11.3492
▁ampa	-11.3495
७	-11.3496
▁år	-11.3498
ັບ	-11.3498
fir	-11.3499
בו	-11.3499
nango	-11.35
▁مل	-11.35
زم	-11.3501
▁sit	-11.3501
▁jiang	-11.3503
▁Ду	-11.3503
hlu	-11.3504
ές	-11.3505
▁Cy	-11.3505
▁siwo	-11.3505
▁Ie	-11.3507
تل	-11.3507
रू	-11.3508
▁homu	-11.3508
ych	-11.3508
hak	-11.3508
▁ата	-11.3509
▁fah	-11.3509
lui	-11.351
्रा	-11.3511
▁gɨ	-11.3511
ပြီး	-11.3512
jʉ	-11.3513
대	-11.3513
lju	-11.3514
▁menga	-11.3515
uun	-11.3515
лий	-11.3515
medi	-11.3516
▁meha	-11.3516
▁Iwe	-11.3518
▁telefon	-11.3518
في	-11.3518
لت	-11.3519
cket	-11.352
oyn	-11.352
▁фи	-11.3521
▁sonde	-11.3521
▁design	-11.3522
nthu	-11.3522
SO	-11.3523
▁Sé	-11.3524
▁كا	-11.3524
يان	-11.3525
kare	-11.3526
אַ	-11.3527
▁roto	-11.3527
şy	-11.3527
▁Pla	-11.3527
itat	-11.3528
ото	-11.3528
уг	-11.3529
▁سم	-11.3529
ރާ	-11.3529
ı̄	-11.353
▁ө	-11.353
ât	-11.3531
ndri	-11.3531
देन	-11.3531
sep	-11.3532
हु	-11.3533
▁niman	-11.3534
ᖏᑦ	-11.3534
▁بھی	-11.3535
▁yʉ	-11.3535
ёт	-11.3535
▁Sto	-11.3536
ವಿ	-11.3539
▁solu	-11.3539
▁τὰ	-11.3541
рах	-11.3544
▁tuu	-11.3548
▁ث	-11.3548
サ	-11.3549
▁All	-11.3549
▁tī	-11.3549
ANA	-11.355
éng	-11.355
▁kora	-11.355
uca	-11.3551
াই	-11.3551
▁Gre	-11.3552
▁rei	-11.3553
tly	-11.3553
וו	-11.3556
▁Papiamento	-11.3557
unk	-11.3558
▁Tin	-11.3558
▁बर	-11.356
▁wayuu	-11.356
եց	-11.3561
▁kuila	-11.3562
▁United	-11.3564
m̧	-11.3564
ޯ	-11.3565
բ	-11.3565
▁kuta	-11.3566
▁kakhulu	-11.3568
▁koya	-11.3568
▁sambu	-11.3569
▁Modimo	-11.357
тӧ	-11.357
solo	-11.357
▁гр	-11.357
▁Һ	-11.3571
изе	-11.3571
бин	-11.3571
▁geb	-11.3572
شا	-11.3573
ໜ	-11.3573
suka	-11.3573
mien	-11.3574
▁cel	-11.3574
नाय	-11.3574
boro	-11.3575
BI	-11.3575
▁sva	-11.3576
▁Los	-11.3578
TL	-11.3579
▁CH	-11.3579
▁mask	-11.3579
beli	-11.358
сна	-11.3581
top	-11.3581
▁pré	-11.3581
pá	-11.3581
бир	-11.3581
ffa	-11.3582
▁fari	-11.3584
▁dike	-11.3584
▁प्रति	-11.3584
romo	-11.3586
▁مق	-11.3586
▁Far	-11.3587
gela	-11.3587
▁ග	-11.3588
▁मान	-11.3589
▁এক	-11.3589
CC	-11.3589
▁lej	-11.3589
▁Ա	-11.359
vre	-11.359
▁pov	-11.3591
ক্ষ	-11.3593
▁rap	-11.3594
hile	-11.3594
▁fur	-11.3595
ordina	-11.3596
न्द	-11.3596
▁Spe	-11.3596
дем	-11.3596
IL	-11.3597
၀ဲ	-11.3598
dɨ	-11.3599
ष्ट	-11.3599
色	-11.36
्वा	-11.36
ngera	-11.3601
▁iina	-11.3604
▁kod	-11.3604
▁شد	-11.3605
ミ	-11.3605
ялда	-11.3605
lij	-11.3608
rme	-11.3609
ދަ	-11.361
▁tat	-11.3611
ME	-11.3612
hẹ	-11.3613
▁imwe	-11.3614
▁և	-11.3614
▁material	-11.3615
unan	-11.3615
்	-11.3616
▁Dai	-11.3618
stva	-11.3619
ության	-11.362
▁més	-11.362
އާ	-11.3621
▁Ó	-11.3624
goni	-11.3624
mesi	-11.3624
ܵ	-11.3624
▁Tupàn	-11.3625
▁кижи	-11.3626
lish	-11.3626
▁pyuo	-11.3626
shy	-11.3626
▁bôt	-11.3627
▁jech	-11.3628
起	-11.3628
▁rad	-11.3629
▁Daud	-11.3629
äk	-11.3629
يَ	-11.363
genda	-11.3632
ਲਾ	-11.3633
fis	-11.3633
▁nema	-11.3633
ҹ	-11.3634
ගේ	-11.3634
▁Mark	-11.3635
▁nahan	-11.3636
▁með	-11.3636
ዮ	-11.3637
fla	-11.3637
гаш	-11.3637
Í	-11.3637
onton	-11.3638
▁fyri	-11.3638
▁bangsa	-11.3638
▁geh	-11.3638
▁augwaligo	-11.364
cuy	-11.364
gene	-11.3641
႕	-11.3641
ṭ	-11.3642
▁rọ	-11.3642
ури	-11.3642
လဲ	-11.3643
▁भिसी	-11.3643
▁Ram	-11.3643
ಚಿ	-11.3643
εῖ	-11.3644
һы	-11.3645
▁लेकिन	-11.3645
▁Dirava	-11.3646
aman	-11.3646
ografi	-11.3647
▁bole	-11.3648
▁nene	-11.3648
yoj	-11.365
▁wira	-11.365
lka	-11.3651
Ε	-11.3652
ás	-11.3652
рон	-11.3653
pora	-11.3654
rry	-11.3654
▁ඒ	-11.3654
တေ	-11.3656
▁ዓ	-11.3657
mbala	-11.3658
AB	-11.366
▁Zezi	-11.366
▁gaya	-11.3661
neng	-11.3663
zə	-11.3663
▁दो	-11.3663
▁حال	-11.3663
▁oka	-11.3664
хуэ	-11.3666
pir	-11.3669
άν	-11.367
বে	-11.3671
▁база	-11.3671
mod	-11.3672
۷	-11.3672
▁puru	-11.3672
做	-11.3677
אר	-11.3677
etan	-11.3679
▁tias	-11.3679
▁luo	-11.3681
▁န	-11.3682
wii	-11.3685
▁bank	-11.3685
▁منٛز	-11.3685
ኒ	-11.3688
▁jé	-11.3688
mand	-11.3689
ahu	-11.3689
ýär	-11.3689
toc	-11.369
ຜູ້	-11.3691
▁Хо	-11.3691
ትን	-11.3692
▁Ky	-11.3692
ами	-11.3693
▁gila	-11.3695
ыб	-11.3699
lemo	-11.3699
öp	-11.37
ކަ	-11.3702
▁sami	-11.3702
ფ	-11.3703
▁wode	-11.3703
ият	-11.3704
▁masha	-11.3706
▁sapa	-11.3707
▁baga	-11.3707
gah	-11.3707
waka	-11.3708
▁regi	-11.3709
qha	-11.371
▁cada	-11.3711
▁бур	-11.3711
lane	-11.3711
ὶ	-11.3711
▁ус	-11.3711
AR	-11.3712
ët	-11.3712
▁feypi	-11.3713
จะ	-11.3714
بت	-11.3715
Øª	-11.3716
બ	-11.3716
▁them	-11.3717
▁cikin	-11.3717
▁hone	-11.3717
مى	-11.3718
MB	-11.3719
▁كَ	-11.372
rdo	-11.3721
▁Heowá	-11.3723
ṇ	-11.3723
ंक	-11.3723
lii	-11.3723
nggan	-11.3723
▁ugu	-11.3724
chej	-11.3726
ယ္	-11.3727
▁প্ৰ	-11.3728
▁If	-11.3728
fü	-11.3729
▁הא	-11.3729
▁fia	-11.3731
▁kalu	-11.3732
টো	-11.3735
хта	-11.3735
!’	-11.3736
rə	-11.3737
ría	-11.3741
▁della	-11.3742
pere	-11.3742
naꞌ	-11.3744
មួយ	-11.3744
вт	-11.3745
laryň	-11.3745
shii	-11.3745
▁pê	-11.3745
lte	-11.3747
▁تە	-11.3749
łe	-11.3749
▁Cal	-11.3749
کر	-11.375
лиги	-11.375
▁salah	-11.3751
ола	-11.3752
ndha	-11.3753
▁kuv	-11.3754
ਜ਼	-11.3755
tih	-11.3755
leme	-11.3755
kite	-11.3755
▁""	-11.3756
keng	-11.3756
▁mabu	-11.3757
▁ಒ	-11.3757
нам	-11.3757
▁konm	-11.3758
▁कम	-11.3758
▁foki	-11.3758
▁Yang	-11.3759
▁kja	-11.376
▁sont	-11.376
▁nog	-11.376
▁එ	-11.3761
Pu	-11.3761
▁ide	-11.3763
ىسى	-11.3763
nyane	-11.3763
▁maua	-11.3764
tib	-11.3764
arti	-11.3766
▁लिए	-11.3767
гъы	-11.3768
TH	-11.3768
▁भारत	-11.377
рма	-11.3771
xq	-11.3772
▁bung	-11.3773
êng	-11.3773
ūt	-11.3774
▁lii	-11.3779
PU	-11.378
કા	-11.378
▁haya	-11.378
▁mh	-11.378
ינ	-11.3781
▁sth	-11.3782
▁pò	-11.3783
▁tema	-11.3784
▁Hem	-11.3785
▁заман	-11.3786
လႄႈ	-11.3786
▁namo	-11.3786
▁yao	-11.3787
ولو	-11.3788
▁zvaka	-11.3788
šte	-11.3788
нес	-11.3788
ją	-11.3788
ске	-11.3789
▁~~~~~	-11.3792
▁ise	-11.3793
▁Fra	-11.3794
ⵓⵔ	-11.3796
▁Vol	-11.3798
▁mont	-11.3798
ಂಡ	-11.3798
▁pɛ	-11.3798
▁жана	-11.3799
koli	-11.3801
uar	-11.3801
mén	-11.3801
▁region	-11.3802
▁eena	-11.3806
▁Kum	-11.3806
taga	-11.3807
cl	-11.3808
hele	-11.3809
▁Tsi	-11.3811
▁lenge	-11.3812
áꞌ	-11.3814
ရှိ	-11.3814
тик	-11.3814
▁donn	-11.3816
▁شي	-11.3818
▁Met	-11.3819
तर	-11.3819
▁тӱ	-11.3819
▁кан	-11.382
▁Europe	-11.382
дыг	-11.382
ppen	-11.3821
▁WA	-11.3821
ashi	-11.3823
▁pl	-11.3823
▁yana	-11.3823
enne	-11.3824
pó	-11.3824
ܰܢ	-11.3827
ţ	-11.3828
▁public	-11.3828
дык	-11.383
▁dɔn	-11.3831
ents	-11.3832
▁red	-11.3832
sali	-11.3833
▁झा	-11.3834
▁gbɛ̃	-11.3837
Ꮂ	-11.3838
▁کردن	-11.3838
ұ	-11.3838
▁Aa	-11.3839
оқ	-11.3842
▁tzij	-11.3842
sari	-11.3842
τό	-11.3843
▁sex	-11.3845
▁Mus	-11.3845
▁hann	-11.3845
erã	-11.3847
alaj	-11.3847
ဝႃႈ	-11.3847
▁sola	-11.3848
ცი	-11.3849
▁kiñe	-11.3849
▁hasta	-11.385
ից	-11.3851
दार	-11.3851
ика	-11.3852
▁кеч	-11.3853
ꨵ	-11.3853
▁SANDWICH	-11.3853
▁hali	-11.3853
▁chih	-11.3854
ᖕ	-11.3855
୍	-11.3855
▁sire	-11.3856
▁neeg	-11.3857
▁mos	-11.3859
▁paling	-11.386
رك	-11.3861
нин	-11.3861
muri	-11.3861
rot	-11.3861
▁ئەم	-11.3862
▁nɛɛ	-11.3863
тара	-11.3863
▁देश	-11.3863
▁agama	-11.3863
hare	-11.3864
tze	-11.3864
▁Tayta	-11.3864
sper	-11.3864
tū	-11.3864
kter	-11.3865
ⵕ	-11.3865
▁kir	-11.3866
型	-11.3867
▁jalan	-11.3867
ణ	-11.3868
ශ	-11.3868
lta	-11.3869
▁madi	-11.3869
θε	-11.387
机	-11.387
bedo	-11.387
vert	-11.3873
▁వి	-11.3874
press	-11.3875
dja	-11.3876
▁personal	-11.3877
▁njan	-11.3877
▁Mil	-11.3878
▁Allata	-11.3878
̶	-11.3878
▁talem	-11.3879
▁who	-11.3879
▁rod	-11.388
jó	-11.388
▁oto	-11.388
▁मिल	-11.388
▁Nag	-11.3881
▁World	-11.3881
道	-11.3882
▁Sesotho	-11.3882
▁bale	-11.3882
ႅ	-11.3882
জা	-11.3883
▁үчүн	-11.3885
sɩ	-11.3885
وري	-11.3886
cut	-11.3886
▁Azerbaijani	-11.3888
那	-11.3888
▁Ini	-11.3888
ភាព	-11.3888
▁about	-11.3888
▁anwo	-11.3888
धा	-11.3889
nɨ	-11.3889
▁swenta	-11.3889
▁log	-11.389
ਰਾ	-11.389
fere	-11.3891
ຫຼ	-11.3891
ost	-11.3892
ڤا	-11.3892
▁avec	-11.3892
▁nwere	-11.3893
мас	-11.3893
ipe	-11.3894
ਤੇ	-11.3894
ius	-11.3895
ghan	-11.3895
ޭ	-11.3898
zali	-11.3899
kker	-11.3899
vum	-11.3899
▁kõ	-11.3899
יז	-11.3899
▁María	-11.3901
bad	-11.3902
▁vuo	-11.3902
ій	-11.3902
▁mambu	-11.3903
▁organ	-11.3908
▁pira	-11.3908
ſ	-11.3908
JA	-11.3908
cla	-11.3908
▁total	-11.391
ウ	-11.3911
зор	-11.3912
▁ਚ	-11.3912
thy	-11.3912
jah	-11.3912
rgan	-11.3912
ଷ	-11.3914
▁nja	-11.3915
seis	-11.3915
▁हु	-11.3916
▁ven	-11.3917
▁fait	-11.3917
▁soci	-11.392
තු	-11.3921
সু	-11.3921
ވެސް	-11.3921
▁bhu	-11.3922
ğan	-11.3925
инг	-11.3926
chita	-11.3926
▁Ди	-11.3926
agu	-11.3927
ⵊ	-11.3929
maz	-11.3929
▁elos	-11.3931
bos	-11.3931
▁Мен	-11.3932
▁tako	-11.3932
གི་	-11.3933
ttar	-11.3934
ël	-11.3935
▁Sabah	-11.3936
▁noa	-11.3939
נה	-11.394
▁mila	-11.394
▁laka	-11.3941
▁chura	-11.3943
▁ר	-11.3946
▁disa	-11.3947
▁bamba	-11.3948
နာ	-11.3948
▁شر	-11.3951
исти	-11.3951
اك	-11.3952
▁дэ	-11.3952
ᒃᑯᑦ	-11.3953
nj	-11.3953
▁kula	-11.3953
үүд	-11.3954
ാണ്	-11.3954
▁zor	-11.3956
gee	-11.3956
маз	-11.3956
▁montok	-11.3956
nisa	-11.3956
▁bù	-11.3959
erte	-11.3959
▁tukuy	-11.3959
тим	-11.396
ськ	-11.396
▁mapu	-11.3961
quil	-11.3961
▁momo	-11.3962
жэ	-11.3963
uwe	-11.3964
▁bhith	-11.3965
müin	-11.3966
▁yuj	-11.3967
Ng	-11.3968
▁oan	-11.3969
▁الا	-11.397
інде	-11.3971
▁natural	-11.3971
▁менен	-11.3971
這	-11.3972
▁class	-11.3973
lerini	-11.3974
ꞈ-	-11.3976
▁pire	-11.3978
▁work	-11.3979
ned	-11.398
▁مان	-11.398
бур	-11.398
▁nyob	-11.3981
▁wit	-11.3981
▁sikandan	-11.3982
▁jeg	-11.3983
▁Ст	-11.3984
lain	-11.3986
ිය	-11.3987
bɑ	-11.3987
▁itah	-11.3988
mint	-11.3989
kꞌa	-11.3989
vision	-11.3989
ٹھ	-11.399
pedi	-11.399
rï	-11.399
▁yebätä	-11.3991
lık	-11.3992
gɨ	-11.3992
dú	-11.3993
scht	-11.3994
▁tsaol	-11.3994
шен	-11.3995
କା	-11.3996
▁yari	-11.3996
ଇ	-11.3996
ɔ̱	-11.3996
ເຊ	-11.3997
အံၤ	-11.3997
pani	-11.3997
galo	-11.3997
ाव	-11.3997
ору	-11.3998
▁vra	-11.3999
▁पो	-11.3999
дур	-11.3999
شر	-11.4001
ੀਆਂ	-11.4001
yom	-11.4001
кол	-11.4002
▁persona	-11.4002
गदे	-11.4003
▁SE	-11.4004
יד	-11.4004
▁nibak	-11.4005
▁andi	-11.4006
▁Say	-11.4006
▁banda	-11.4006
ligt	-11.4007
▁siku	-11.4008
lī	-11.4008
ىنىڭ	-11.4008
▁Δ	-11.4008
▁dek	-11.4009
▁عام	-11.4011
▁Products	-11.4011
▁են	-11.4012
тӥ	-11.4012
лем	-11.4013
▁пур	-11.4013
دِ	-11.4014
▁hela	-11.4015
▁үл	-11.4015
βα	-11.4016
wele	-11.4016
နဲ့	-11.4018
▁teuma	-11.4019
رق	-11.4019
▁Tai	-11.402
ำ	-11.402
esti	-11.402
▁uhi	-11.4021
▁penga	-11.4022
▁bilong	-11.4022
▁pac	-11.4023
▁ley	-11.4024
▁koro	-11.4025
▁pet	-11.4025
kpe	-11.4026
डा	-11.4027
아	-11.4027
▁ян	-11.4027
▁waktu	-11.4028
▁Io	-11.4028
▁खु	-11.4028
ора	-11.4029
▁beste	-11.4029
tarr	-11.4029
▁kann	-11.403
▁يا	-11.403
▁gala	-11.403
▁nanti	-11.4031
▁байгаа	-11.4032
mama	-11.4033
▁Pulu	-11.4033
▁tanda	-11.4033
wɛɛ	-11.4034
ܰܒ	-11.4034
▁आसा	-11.4037
jei	-11.4037
▁Bay	-11.4038
▁nogi	-11.4038
▁Sala	-11.4038
ымаш	-11.404
▁тан	-11.404
pā	-11.4041
▁Apo	-11.4042
ষ্ট	-11.4043
dei	-11.4046
▁Sim	-11.4046
▁hiki	-11.4047
a̱a̱	-11.4048
▁dam	-11.4048
nus	-11.4048
ள	-11.4049
этэ	-11.405
yz	-11.405
vina	-11.405
spi	-11.4051
动	-11.4052
▁impa	-11.4052
ivi	-11.4053
ވ	-11.4053
▁judío	-11.4053
ря	-11.4053
תי	-11.4054
lawo	-11.4054
▁kiwa	-11.4054
▁Top	-11.4055
ഗ	-11.4056
▁kuda	-11.4056
යේ	-11.4058
bine	-11.4058
sts	-11.406
▁hpa	-11.4061
▁көр	-11.4061
yad	-11.4062
܆	-11.4063
гун	-11.4063
тк	-11.4063
▁tō	-11.4065
დე	-11.4066
ման	-11.4067
€	-11.4068
ɗo	-11.4069
▁लबा	-11.407
ялъул	-11.407
ন্দ	-11.4071
زن	-11.4071
▁Win	-11.4072
▁ᑭ	-11.4072
វា	-11.4074
▁thla	-11.4075
▁baja	-11.4075
Go	-11.4075
رف	-11.4075
ಖ	-11.4076
工	-11.4076
Wo	-11.4077
ట్	-11.4078
mie	-11.4078
Œë	-11.4079
eden	-11.4079
Fi	-11.4081
▁runakuna	-11.4083
▁pola	-11.4085
liu	-11.4085
द्	-11.4085
ፋ	-11.4085
tɔ́	-11.4086
sson	-11.4087
ŋŋ	-11.4088
nds	-11.409
BE	-11.409
▁Kot	-11.409
pɛ	-11.4091
▁laha	-11.4091
ん	-11.4091
ቦ	-11.4091
▁Breast	-11.4092
▁nto	-11.4093
▁yange	-11.4093
성	-11.4094
▁Bee	-11.4095
▁କରି	-11.4095
▁գ	-11.4096
হি	-11.4097
chay	-11.4098
▁chupe	-11.4099
cina	-11.4099
教	-11.41
bani	-11.4101
▁ebete	-11.4101
▁лъа	-11.4101
mpak	-11.4102
▁api	-11.4102
▁vana	-11.4103
▁Maa	-11.4105
څ	-11.4106
▁mɔgɔ	-11.4106
▁ureuëng	-11.4108
可	-11.4109
вол	-11.4112
дис	-11.4112
▁igi	-11.4112
▁सी	-11.4114
ую	-11.4114
yala	-11.4115
yú	-11.4115
▁Bala	-11.4117
▁domin	-11.4118
▁Eng	-11.4118
ⵓⵙ	-11.4119
BU	-11.412
▁tẹ	-11.4122
bu̲	-11.4123
▁dig	-11.4124
ដោយ	-11.4124
▁iwi	-11.4125
धि	-11.4126
ပြ	-11.4127
▁vý	-11.4127
ዎች	-11.4127
яб	-11.4129
hụ	-11.413
nab	-11.4132
?—	-11.4132
ඩ	-11.4133
으로	-11.4133
cta	-11.4134
८	-11.4136
▁Ih	-11.4136
▁bulan	-11.4137
▁ӱ	-11.4137
kꞌ	-11.4137
gini	-11.4139
▁prie	-11.4139
▁Saa	-11.414
ôô	-11.414
һу	-11.4141
cm	-11.4141
▁bango	-11.4141
hila	-11.4141
▁cost	-11.4142
wula	-11.4143
▁ಪಾ	-11.4144
mper	-11.4145
▁Sepedi	-11.4145
▁chim	-11.4146
▁Beta	-11.4147
wā	-11.4149
▁Lau	-11.415
▁খ	-11.4151
▁ያ	-11.4152
ား	-11.4152
дээ	-11.4152
▁fat	-11.4153
ꞌan	-11.4153
▁teko	-11.4153
▁nuu	-11.4154
ово	-11.4155
です	-11.4157
▁ਤੋਂ	-11.4157
ropa	-11.4157
dama	-11.4158
iling	-11.4158
bora	-11.4159
▁וו	-11.416
odu	-11.4162
▁паза	-11.4162
shwa	-11.4163
▁sono	-11.4164
duh	-11.4164
▁cuma	-11.4166
ᖑ	-11.4169
▁هن	-11.4172
ό	-11.4172
▁bhe	-11.4173
▁maru	-11.4173
▁ताम	-11.4173
вор	-11.4173
wɑ	-11.4173
éré	-11.4174
ема	-11.4175
tot	-11.4176
▁eus	-11.4177
рі	-11.4177
ээн	-11.4177
▁pit	-11.4178
▁хъу	-11.418
▁Jézi	-11.418
tüin	-11.4181
eru	-11.4181
ܠܐ	-11.4181
▁gou	-11.4181
▁#####	-11.4181
▁beli	-11.4182
ހާ	-11.4183
▁yanapa	-11.4183
llet	-11.4186
▁არ	-11.4187
then	-11.4187
ец	-11.4187
ធ្វើ	-11.4187
exana	-11.4188
▁Kri	-11.4188
▁wok	-11.4188
ↄ̃	-11.4189
▁know	-11.419
▁ನಾ	-11.419
▁ਵਿਚ	-11.419
ї	-11.4192
我們	-11.4192
yamba	-11.4193
▁stre	-11.4193
્	-11.4193
ောက်	-11.4194
anik	-11.4194
ེ་	-11.4195
జ	-11.4195
тып	-11.4196
ஸ்	-11.4196
▁chino	-11.4197
נט	-11.4197
SU	-11.4198
▁bini	-11.42
▁Kur	-11.4202
▁airson	-11.4202
ၵ်း	-11.4202
▁kinye	-11.4203
▁süpüla	-11.4203
▁Jahowa	-11.4203
▁булан	-11.4203
▁multi	-11.4203
නා	-11.4204
▁atah	-11.4205
▁وت	-11.4206
jc	-11.4208
▁kadagiti	-11.4209
▁Serbian	-11.4209
▁wọn	-11.421
တီႈ	-11.4211
▁ار	-11.4211
wach	-11.4212
ncia	-11.4212
ۇل	-11.4213
▁यो	-11.4214
ног	-11.4214
▁lac	-11.4216
టి	-11.4216
iha	-11.4216
নো	-11.4218
ਤਾ	-11.4218
▁tete	-11.4219
▁Eg	-11.4219
کت	-11.4219
▁Bas	-11.4221
▁lɛ́	-11.4221
▁husi	-11.4221
▁Aj	-11.4222
yaka	-11.4223
▁katoa	-11.4223
pawl	-11.4225
лән	-11.4225
ɗe	-11.4227
מה	-11.4227
▁વ	-11.4227
sasa	-11.4227
ക്	-11.4227
▁You	-11.423
ུ་	-11.423
ís	-11.4233
▁هڪ	-11.4234
މް	-11.4235
重	-11.4235
است	-11.4236
]]	-11.4236
gma	-11.4237
▁ආ	-11.4237
▁nyí	-11.4237
side	-11.4237
ৰে	-11.4239
▁mû	-11.424
ǫ	-11.424
▁janah	-11.424
thar	-11.424
ngal	-11.4241
ām	-11.4242
хе	-11.4242
inge	-11.4242
zá	-11.4243
▁RE	-11.4244
▁dor	-11.4245
հ	-11.4246
க்கு	-11.4246
现	-11.4247
lada	-11.4248
त्या	-11.4248
▁sog	-11.4248
yow	-11.425
rasa	-11.425
kë	-11.4253
yaan	-11.4254
Hu	-11.4255
ܢܐ	-11.4255
▁pè	-11.4255
ಬ	-11.4256
тэн	-11.4256
意	-11.4257
vulu	-11.4258
span	-11.4259
▁Kini	-11.4259
m̦	-11.4259
▁cau	-11.4261
peta	-11.4261
▁რომ	-11.4261
zî	-11.4262
▁Anak	-11.4263
▁Dioso	-11.4263
▁সে	-11.4264
site	-11.4264
مار	-11.4264
rø	-11.4265
âm	-11.4265
ީ	-11.4265
▁piki	-11.4265
taba	-11.4267
kham	-11.4267
pika	-11.4268
anii	-11.4269
▁leswi	-11.4269
ация	-11.4271
ದಿ	-11.4273
ади	-11.4275
ထား	-11.4275
南	-11.4276
мі	-11.4277
nyụn̄	-11.4278
▁പ്ര	-11.428
πε	-11.4284
ű	-11.4284
▁zaman	-11.4286
кай	-11.4286
▁baro	-11.4287
njalo	-11.4287
cili	-11.429
▁Jacob	-11.429
ଟି	-11.429
app	-11.4291
▁ком	-11.4291
ᒧᑦ	-11.4292
güe	-11.4293
ܼ	-11.4294
кор	-11.4295
▁luagu	-11.4295
▁Gor	-11.4295
tshwa	-11.4295
▁θα	-11.4295
ਂ	-11.4296
▁sut	-11.4298
گى	-11.43
АР	-11.43
öm	-11.4301
اک	-11.4301
ɛmɛ	-11.4304
▁gus	-11.4305
vha	-11.4305
леш	-11.4305
▁Sena	-11.4306
rac	-11.4306
▁MO	-11.4307
▁iwe	-11.4307
▁karne	-11.4308
ìœ	-11.4308
vî	-11.4308
vwa	-11.4308
ဢမ်ႇ	-11.4309
ίας	-11.431
▁ireo	-11.431
rayku	-11.431
တ်း	-11.4313
▁into	-11.4314
ڏ	-11.4315
Wi	-11.4316
▁game	-11.4317
Ц	-11.4318
cula	-11.432
▁Eb	-11.432
▁uchun	-11.4321
▁Га	-11.4321
当	-11.4321
tì	-11.4321
name	-11.4321
mbili	-11.4324
▁todo	-11.4328
▁nako	-11.4331
sî	-11.4333
kate	-11.4333
nova	-11.4333
▁Č	-11.4334
тив	-11.4335
Huan	-11.4335
nogo	-11.4336
isme	-11.4336
yela	-11.4336
▁haka	-11.4338
▁page	-11.4341
າ	-11.4341
wyr	-11.4342
▁Kin	-11.4344
huri	-11.4345
元	-11.4345
▁bate	-11.4346
▁că	-11.4347
▁Medi	-11.4347
ntle	-11.4348
▁kɩ	-11.4348
dê	-11.4348
⸥	-11.4348
culo	-11.4349
riye	-11.4349
▁bino	-11.4351
ട്ട	-11.4352
▁thaw	-11.4353
፡፡	-11.4354
▁konopu	-11.4354
раб	-11.4354
paa	-11.4355
▁yek	-11.4355
▁যা	-11.4357
▁Dibata	-11.4358
▁pake	-11.4358
khon	-11.4359
toma	-11.4359
▁tusa	-11.436
ɗa	-11.436
▁Abasi	-11.436
cra	-11.436
▁num	-11.4361
ំ	-11.4362
hul	-11.4362
▁класс	-11.4362
ngolo	-11.4365
уьй	-11.4366
radi	-11.4366
ענ	-11.4367
наш	-11.4367
▁hava	-11.4368
▁Zambe	-11.4369
ະ	-11.4369
Simplified	-11.437
▁тут	-11.4371
▁بت	-11.4372
ାଇ	-11.4372
回	-11.4373
බ	-11.4373
▁ሰ	-11.4373
ელ	-11.4375
▁դ	-11.4375
ач	-11.4375
glia	-11.4375
▁ሕ	-11.4378
▁vse	-11.4378
almente	-11.4381
▁pëpe	-11.4381
Ꮺ	-11.4382
ῶν	-11.4382
१	-11.4383
▁दी	-11.4384
▁Indonesia	-11.4385
ლა	-11.4385
ори	-11.4386
ⵓⵍ	-11.4387
▁ଏ	-11.4387
▁hia	-11.4387
▁nnyịn	-11.4388
▁olan	-11.4389
▁bagay	-11.4393
shina	-11.4393
nggal	-11.4394
кр	-11.4397
▁romo	-11.4398
δε	-11.4398
lav	-11.4398
▁Mont	-11.44
hali	-11.4401
дг	-11.4401
kiti	-11.4402
▁iek	-11.4402
▁Ꭲ	-11.4403
▁euro	-11.4403
hlan	-11.4403
▁tiang	-11.4403
▁TI	-11.4404
▁iuia	-11.4405
▁þat	-11.4409
lata	-11.441
зер	-11.441
▁التي	-11.441
▁www	-11.441
tuur	-11.4411
bert	-11.4411
▁تع	-11.4412
tile	-11.4412
▁ಮಾ	-11.4413
bə	-11.4413
▁pī	-11.4414
lema	-11.4417
ical	-11.4417
گەن	-11.4417
ኩ	-11.4419
▁Yekova	-11.4423
▁وان	-11.4423
▁Pin	-11.4426
▁kwaw	-11.4426
mple	-11.4426
рик	-11.4426
▁vita	-11.443
▁ау	-11.443
galu	-11.4431
nego	-11.4431
▁Australia	-11.4431
amaa	-11.4432
▁jari	-11.4432
ient	-11.4433
lv	-11.4434
▁мө	-11.4435
jl	-11.4436
▁Sen	-11.4437
forma	-11.4437
▁bilan	-11.4437
▁nba	-11.4438
▁ት	-11.4439
्‍या	-11.444
્ય	-11.4441
▁bó	-11.4442
▁IN	-11.4443
▁insan	-11.4444
कल	-11.4444
ছিল	-11.4444
▁પણ	-11.4445
ⵂ	-11.4445
ێن	-11.4446
▁spi	-11.4447
vä	-11.4447
▁jareya	-11.4448
cé	-11.4449
▁Bul	-11.4449
▁kalau	-11.4449
▁тап	-11.445
lewa	-11.445
▁oder	-11.445
wch	-11.4451
جو	-11.4451
器	-11.4453
▁ẹke	-11.4453
fɛ	-11.4453
▁kēia	-11.4453
fr	-11.4453
lder	-11.4455
▁Europa	-11.4455
ант	-11.4455
▁ụ	-11.4456
يڠ	-11.4456
▁کننده	-11.4457
න්න	-11.4457
▁Langue	-11.4457
ら	-11.4458
ኸ	-11.4459
čno	-11.4461
إ	-11.4461
▁ngel	-11.4462
▁kla	-11.4462
▁Usa	-11.4465
ổ	-11.4465
▁ray	-11.4466
▁gwo	-11.4467
内	-11.4468
정	-11.4469
▁Ir	-11.447
▁bh	-11.447
▁meno	-11.447
जे	-11.447
▁key	-11.4472
▁azy	-11.4472
▁எ	-11.4473
▁organis	-11.4473
▁pula	-11.4474
ngui	-11.4475
tawan	-11.4476
ઈ	-11.4477
ðu	-11.4477
lego	-11.4478
сов	-11.448
რა	-11.4481
▁Kir	-11.4481
хт	-11.4482
▁lege	-11.4482
mono	-11.4483
▁organiz	-11.4483
ပဵၼ်	-11.4485
lif	-11.4487
ёс	-11.4487
သည်	-11.4489
▁West	-11.449
▁spesies	-11.449
▁biya	-11.4491
▁Ina	-11.4492
▁رس	-11.4492
డి	-11.4494
▁شن	-11.4495
bada	-11.4495
ချ	-11.4495
▁Satana	-11.4496
▁ठ	-11.4496
ње	-11.4496
શ	-11.4497
▁что	-11.4498
indo	-11.4499
fol	-11.4499
chij	-11.4499
▁Ул	-11.4502
▁Wen	-11.4503
▁ḡe	-11.4504
මා	-11.4505
beri	-11.4505
rz	-11.4506
hitumbuka	-11.4506
▁timo	-11.4507
ндан	-11.4507
els	-11.4507
▁топ	-11.4508
ார்	-11.451
কী	-11.451
ອນ	-11.4511
▁sorkar	-11.4511
▁Ла	-11.4512
VI	-11.4512
ερ	-11.4513
лон	-11.4513
▁gibi	-11.4513
▁ਜ	-11.4514
▁bola	-11.4515
saw	-11.4515
▁kuwi	-11.4516
tate	-11.4516
ారు	-11.4517
šta	-11.4517
學	-11.4518
ठा	-11.4518
our	-11.4519
سه	-11.452
▁नै	-11.452
یکی	-11.452
▁numa	-11.4521
▁τῶν	-11.4521
ния	-11.4521
çı	-11.4522
ム	-11.4523
ド	-11.4523
▁және	-11.4524
▁raj	-11.4524
ធ	-11.4525
▁Santa	-11.4525
▁Faka	-11.4526
ོང་	-11.4528
▁ping	-11.453
nuk	-11.4531
όν	-11.4533
jos	-11.4533
▁marca	-11.4534
ალ	-11.4534
fort	-11.4536
ojn	-11.4536
▁زنی	-11.4536
▁hō	-11.4537
ľi	-11.4538
ది	-11.4539
▁δια	-11.4539
▁mə	-11.4541
▁ана	-11.4541
јә	-11.4541
▁kue	-11.4543
▁signes	-11.4544
平	-11.4546
ως	-11.4546
زان	-11.4547
jia	-11.4547
▁lini	-11.4547
ml	-11.4547
▁pela	-11.4547
▁Yave	-11.455
▁pö	-11.4552
बे	-11.4552
íŠ	-11.4554
еди	-11.4557
қи	-11.4558
▁ekki	-11.4558
▁ބަ	-11.4558
▁Hyang	-11.4558
kī	-11.456
OM	-11.456
▁anyi	-11.4562
▁nur	-11.4563
ikh	-11.4564
▁मुला	-11.4565
‚˜	-11.4566
rado	-11.4568
▁sli	-11.4568
ܳܢ	-11.4568
сун	-11.457
ኡ	-11.4571
▁ካብ	-11.4571
кри	-11.4572
сия	-11.4573
▁Las	-11.4574
▁bilo	-11.4576
▁Plan	-11.4576
▁alma	-11.4578
нинъ	-11.4579
ére	-11.4581
▁пай	-11.4582
tora	-11.4582
४	-11.4583
фэ	-11.4583
▁huma	-11.4583
zɛ	-11.4584
ອາ	-11.4586
▁wale	-11.4586
ိုး	-11.4586
▁flu	-11.4587
сул	-11.4588
▁rang	-11.4589
件	-11.459
ވަ	-11.4591
gaan	-11.4593
l᷊a	-11.4595
လူ	-11.4595
▁rè	-11.4596
лог	-11.4596
mbro	-11.4599
ार	-11.46
mbela	-11.4601
meri	-11.4601
tege	-11.4601
▁lokal	-11.4602
চা	-11.4602
ݨ	-11.4602
▁Baa	-11.4604
ಮಿ	-11.4604
arta	-11.4604
ನು	-11.4605
nish	-11.4606
▁hawa	-11.4607
▁тура	-11.4607
▁või	-11.4608
▁Oo	-11.4608
▁бара	-11.4609
▁cii	-11.4613
elt	-11.4615
ņa	-11.4616
dà	-11.4617
▁yachachi	-11.4617
מע	-11.4617
▁karu	-11.4617
ި	-11.4617
▁Malaysia	-11.4617
▁Luk	-11.4617
▁sangat	-11.4618
यर	-11.4619
swe	-11.4619
▁ਇਹ	-11.4619
ކަން	-11.462
تون	-11.462
▁болуп	-11.462
バ	-11.462
▁cro	-11.4621
әһ	-11.4622
टे	-11.4623
▁ubak	-11.4623
▁kira	-11.4623
▁sampai	-11.4624
▁Lam	-11.4624
נע	-11.4625
▁lidan	-11.4626
▁Dir	-11.4626
ште	-11.4626
▁nakama	-11.4627
▁Diose	-11.4628
▁поч	-11.4629
▁sac	-11.4631
gili	-11.4632
▁मंज़	-11.4634
fik	-11.4634
▁taha	-11.4634
ُوں	-11.4635
▁ota	-11.4636
▁gé	-11.4636
▁Dat	-11.4639
އަ	-11.4639
▁ento	-11.4639
▁مي	-11.464
▁high	-11.464
ᕐᕕ	-11.4641
នា	-11.4642
▁ܩ	-11.4642
▁cih	-11.4643
ॅ	-11.4643
▁сан	-11.4644
FA	-11.4644
▁ente	-11.4644
ഷ	-11.4645
иф	-11.4645
сл	-11.4646
▁espe	-11.4647
פּ	-11.4647
Ó	-11.4648
▁uj	-11.4649
▁libro	-11.4649
sera	-11.4649
ไม่	-11.4649
ẍ	-11.465
tzun	-11.4651
▁ezin	-11.4651
▁ando	-11.4652
adas	-11.4652
点	-11.4653
▁zòt	-11.4653
▁Wikipedia	-11.4653
▁gau	-11.4653
غان	-11.4654
▁leyi	-11.4654
▁ici	-11.4655
业	-11.4655
▁ук	-11.4656
lman	-11.4656
оль	-11.4657
тап	-11.4657
テ	-11.4658
▁kabu	-11.4658
▁dî	-11.4658
ithi	-11.4659
că	-11.4659
▁قیمت	-11.4659
▁ngei	-11.466
दान	-11.4661
សា	-11.4662
sẹ	-11.4662
▁ⵎ	-11.4662
▁nc	-11.4663
ော	-11.4666
kyerɛ	-11.4666
▁vari	-11.4667
шк	-11.4667
▁bone	-11.4668
awu	-11.4668
▁hën	-11.4668
▁saj	-11.4668
ρο	-11.4669
ût	-11.4669
ᖁ	-11.4669
mile	-11.4669
ɔ̀	-11.467
sida	-11.467
▁bage	-11.4671
ווע	-11.4671
▁Pun	-11.4671
kje	-11.4671
wor	-11.4672
kaba	-11.4672
PP	-11.4673
▁هند	-11.4673
cions	-11.4674
став	-11.4674
skri	-11.4675
▁izay	-11.4676
▁obe	-11.4676
neg	-11.4678
次	-11.4678
▁στο	-11.4679
ass	-11.4679
▁jama	-11.4679
نده	-11.4681
ット	-11.4682
▁yah	-11.4683
ま	-11.4683
ल्‍	-11.4683
▁ܫ	-11.4684
著	-11.4684
лда	-11.4685
▁Mah	-11.4685
▁fak	-11.4685
▁кем	-11.4686
▁rawa	-11.4687
ⵥ	-11.4687
muli	-11.4688
ǵan	-11.4689
▁iwo	-11.469
арин	-11.4691
▁ⵜⵎ	-11.4691
ларына	-11.4691
▁sabuah	-11.4692
îya	-11.4692
tare	-11.4694
fica	-11.4694
▁dän	-11.4696
▁fɛɛ	-11.4696
lete	-11.4697
▁pakhat	-11.4697
ခု	-11.4697
▁esp	-11.4698
▁lobo	-11.4698
யா	-11.4699
▁vida	-11.4699
гл	-11.47
isto	-11.47
▁frá	-11.47
dị	-11.4701
ɛrɛ	-11.4702
ება	-11.4703
ெ	-11.4703
ⴰⵎ	-11.4704
asan	-11.4705
ଲେ	-11.4706
▁illa	-11.4706
▁வ	-11.4707
လီ	-11.4707
▁leg	-11.4708
क्त	-11.4709
раш	-11.4709
▁primer	-11.471
▁ndɛ	-11.471
ынан	-11.471
ndye	-11.4711
kto	-11.4712
▁kule	-11.4713
▁Og	-11.4713
▁awm	-11.4714
▁maya	-11.4715
▁जन	-11.4716
▁wake	-11.4716
ᓂᑦ	-11.4718
ندي	-11.4719
йын	-11.4719
pü	-11.472
▁Iye	-11.472
▁gans	-11.4723
▁сав	-11.4723
bari	-11.4723
▁आणि	-11.4724
▁ipu	-11.4724
▁бере	-11.4724
▁kī	-11.4725
▁саб	-11.4728
▁smo	-11.4728
ங்க	-11.4728
▁wedi	-11.4728
fulu	-11.4729
▁Sel	-11.4729
rav	-11.4729
yac	-11.473
sada	-11.473
מש	-11.473
ڬ	-11.4731
▁ngɛ	-11.4733
▁arri	-11.4734
▁Hiligaynon	-11.4735
▁plis	-11.4735
νη	-11.4735
▁Հ	-11.4736
рар	-11.4736
▁我們	-11.4736
▁ria	-11.4736
▁कै	-11.4736
▁fay	-11.4737
ttha	-11.4737
▁Dili	-11.4737
ంది	-11.4741
▁Tsa	-11.4742
▁lum	-11.4742
tien	-11.4742
▁Maya	-11.4743
тыҥ	-11.4744
٢	-11.4744
▁Espíritu	-11.4745
▁minn	-11.4745
present	-11.4745
▁dins	-11.4746
▁hwe	-11.4746
ứ	-11.4747
▁тус	-11.4747
yini	-11.4749
▁ũ	-11.4749
हार	-11.4749
vek	-11.475
▁Бе	-11.4751
▁nə	-11.4751
▁Sub	-11.4752
▁tras	-11.4752
▁ris	-11.4753
Ima	-11.4756
▁omwa	-11.4756
▁ọrụ	-11.4758
▁buhok	-11.4761
▁αὐτ	-11.4761
డు	-11.4762
ном	-11.4763
ಾಗಿ	-11.4763
▁τους	-11.4763
hra	-11.4765
▁бө	-11.4766
qil	-11.4768
▁ekonomi	-11.4768
나	-11.4768
बि	-11.4769
jà	-11.4769
機	-11.477
ിയ	-11.477
▁control	-11.477
▁Ꮷ	-11.477
▁Asia	-11.4773
volɛ	-11.4773
▁mp	-11.4774
lise	-11.4774
▁уг	-11.4774
▁run	-11.4775
ixa	-11.4776
▁koja	-11.4776
▁بىر	-11.4776
ganda	-11.4777
▁Us	-11.4778
ысты	-11.4779
▁dindi	-11.4779
▁ܟ	-11.478
mede	-11.478
тери	-11.4781
▁ଓ	-11.4781
LU	-11.4782
ọk	-11.4782
▁nzu	-11.4784
ØªØ	-11.4784
cala	-11.4784
▁жыл	-11.4785
▁ਕਰ	-11.4786
late	-11.4787
upu	-11.4789
mech	-11.4789
▁جی	-11.479
▁hman	-11.479
▁kru	-11.4792
ସ୍	-11.4792
安	-11.4793
atau	-11.4793
▁ega	-11.4793
▁dini	-11.4794
wĩ	-11.4794
ngnga	-11.4795
نَ	-11.4795
धी	-11.4796
íí	-11.4796
▁Fri	-11.4797
သု	-11.4797
ུང་	-11.4798
یو	-11.4798
ləri	-11.4799
গে	-11.4799
▁new	-11.48
▁projekt	-11.48
▁bek	-11.48
ച്ച	-11.4801
▁देव	-11.4802
джа	-11.4802
dica	-11.4802
▁Chichewa	-11.4802
้า	-11.4802
леп	-11.4803
ުން	-11.4804
▁kelen	-11.4805
رج	-11.4805
ण्ड	-11.4805
▁fini	-11.4808
구	-11.4809
ασ	-11.4809
dali	-11.4809
rupa	-11.481
voir	-11.481
▁सर्व	-11.4811
▁wéi	-11.4811
れ	-11.4812
တော့	-11.4814
သား	-11.4814
lls	-11.4815
gem	-11.4816
öö	-11.4818
laš	-11.4818
▁sich	-11.4818
▁siv	-11.4819
▁jul	-11.4819
sebe	-11.482
ブ	-11.482
▁stojol	-11.482
శ	-11.4821
▁веле	-11.4821
ጻ	-11.4821
lili	-11.4823
▁piya	-11.4824
요	-11.4828
▁күр	-11.4828
▁Ас	-11.4828
bisa	-11.483
็	-11.4831
pene	-11.4831
gta	-11.4832
ಗಿ	-11.4832
▁used	-11.4833
ndhi	-11.4834
ූ	-11.4834
▁Joseph	-11.4834
acht	-11.4836
স্	-11.4838
▁Mü	-11.4838
лг	-11.4838
▁jekh	-11.4838
▁ngagai	-11.4838
ಸಿ	-11.4839
òr	-11.4839
▁હ	-11.4839
▁ɖé	-11.484
ᖏ	-11.484
że	-11.484
bud	-11.484
дү	-11.4841
limi	-11.4842
uran	-11.4842
ಜಿ	-11.4843
▁pema	-11.4843
▁Ä	-11.4843
▁dol	-11.4844
▁Mei	-11.4845
▁Awọn	-11.4847
elela	-11.4847
為	-11.4849
▁аны	-11.485
១	-11.485
▁بۇ	-11.4851
ग्	-11.4851
عب	-11.4855
gata	-11.4856
▁banget	-11.4857
▁تش	-11.4859
éké	-11.4859
▁iji	-11.486
▁Ху	-11.4861
▁rub	-11.4861
ір	-11.4862
▁eksp	-11.4863
▁waar	-11.4863
山	-11.4864
▁tlho	-11.4864
È	-11.4865
▁వ	-11.4866
更	-11.4866
âr	-11.4866
▁Amo	-11.4867
▁Spa	-11.4868
—�	-11.487
▁Kay	-11.4872
ville	-11.4872
▁luga	-11.4873
tlan	-11.4873
dɩ	-11.4873
▁hap	-11.4874
▁khal	-11.4874
ули	-11.4874
▁tenei	-11.4875
тка	-11.4875
صر	-11.4876
lagi	-11.4877
ဃ	-11.4879
▁ví	-11.4879
hɔ	-11.4879
CI	-11.488
dwe	-11.4881
dien	-11.4881
kumu	-11.4882
kwan	-11.4882
rol	-11.4883
yas	-11.4883
ោះ	-11.4884
nï	-11.4885
olog	-11.4886
▁Sk	-11.4888
эгъу	-11.4889
hap	-11.4891
YA	-11.4892
▁sci	-11.4892
ھا	-11.4893
▁ఎ	-11.4893
hov	-11.4894
很	-11.4895
▁kapab	-11.4896
▁хор	-11.4897
▁Egipto	-11.4898
prov	-11.4899
後	-11.4899
جی	-11.4899
▁ھ	-11.4899
urt	-11.49
▁mog	-11.4901
cama	-11.4901
Ì	-11.4902
peri	-11.4903
▁lay	-11.4903
بە	-11.4903
▁pü	-11.4903
▁bah	-11.4904
▁uko	-11.4904
▁zuo	-11.4904
нек	-11.4904
신	-11.4905
▁anthu	-11.4906
▁مج	-11.4907
མས་	-11.4907
mbia	-11.4908
ᐅᑎ	-11.4909
Au	-11.491
▁سَ	-11.4911
risti	-11.4911
vata	-11.4912
▁لي	-11.4912
cahua	-11.4913
▁الص	-11.4913
mentar	-11.4914
▁also	-11.4914
ър	-11.4915
عة	-11.4915
ฟ	-11.4915
▁dò	-11.4916
▁seki	-11.4918
yero	-11.4919
lec	-11.4919
र्ग	-11.4919
çion	-11.4921
▁Mr	-11.4921
hre	-11.4921
ترین	-11.4922
pare	-11.4922
bye	-11.4924
▁untu	-11.4924
أن	-11.4925
▁оп	-11.4927
▁promo	-11.4928
▁Raja	-11.4929
ཁ	-11.4931
▁ubi	-11.4931
ùn	-11.4931
يِ	-11.4932
ებს	-11.4933
Ꮪ	-11.4933
▁पै	-11.4933
kə	-11.4934
▁Portuguese	-11.4934
rtu	-11.4934
▁ž	-11.4935
▁пры	-11.4935
ọn	-11.4936
▁ori	-11.4936
▁jal	-11.4937
ەن	-11.4937
▁شهر	-11.4937
ryo	-11.4938
▁pano	-11.4938
▁ogoni	-11.4939
OP	-11.4939
է	-11.4939
▁Гьа	-11.4941
വാ	-11.4941
ball	-11.4942
sud	-11.4942
thei	-11.4943
alil	-11.4943
Traditional	-11.4944
▁SI	-11.4945
▁otu	-11.4945
mann	-11.4945
ⵎⴰ	-11.4946
ohi	-11.4946
ós	-11.4947
anne	-11.4948
യും	-11.4949
zak	-11.4949
▁peg	-11.495
ದಲ್ಲಿ	-11.4951
وع	-11.4952
▁anmar	-11.4952
▁hea	-11.4954
ាយ	-11.4954
twe	-11.4954
▁oke	-11.4955
▁está	-11.4955
ⵓⵜ	-11.4955
ýän	-11.4956
রী	-11.4956
▁LI	-11.4956
▁kōn	-11.4957
PO	-11.4957
▁нэ	-11.4957
rqanku	-11.4958
མེད་	-11.4958
pok	-11.4958
تِ	-11.4958
Ꮞ	-11.4958
mere	-11.4958
▁Tata	-11.4959
וס	-11.496
rede	-11.496
▁pura	-11.496
▁usun	-11.4961
លោក	-11.4961
่า	-11.4962
chas	-11.4962
ṭ	-11.4963
ḡe	-11.4964
▁cá	-11.4964
▁einai	-11.4965
▁leis	-11.4965
▁xqui	-11.4966
▁Wasa	-11.4966
sú	-11.4968
ρά	-11.4968
achd	-11.4968
нем	-11.4969
ଲି	-11.4971
▁element	-11.4973
▁penge	-11.4973
▁Aq	-11.4973
sị	-11.4973
pende	-11.4975
mita	-11.4976
▁kabi	-11.4977
ຢ	-11.4978
bik	-11.4978
▁कारण	-11.4979
▁taiñ	-11.4979
▁ምስ	-11.4979
一個	-11.4979
ेर	-11.498
yani	-11.498
اند	-11.4981
Œì	-11.4981
▁къай	-11.4981
ʌl	-11.4981
▁Order	-11.4982
ត្រ	-11.4982
▁ܥ	-11.4982
▁mesa	-11.4984
llam	-11.4985
▁important	-11.4986
▁wañu	-11.4986
gda	-11.4986
сны	-11.4987
cı	-11.4987
дары	-11.4988
ං	-11.4988
cɛ	-11.4989
▁back	-11.4989
ᏍᎩ	-11.4989
▁politic	-11.499
▁Ро	-11.499
атын	-11.499
▁katei	-11.4991
чка	-11.4992
ਦੇ	-11.4992
▁faire	-11.4992
ома	-11.4993
‌های	-11.4995
▁grad	-11.4995
vyo	-11.4995
▁ד	-11.4995
кал	-11.4996
рем	-11.4996
▁tola	-11.4996
ств	-11.4996
▁Bang	-11.4997
ӕн	-11.5
▁iran	-11.5
▁وقت	-11.5
râ	-11.5001
▁Web	-11.5001
▁प्रा	-11.5003
qat	-11.5003
▁memang	-11.5003
ↄↄ	-11.5005
˰	-11.5006
мад	-11.5006
▁nego	-11.5006
Bolivia	-11.5006
baya	-11.5007
▁kis	-11.5007
ဵ	-11.5008
kanda	-11.5009
▁hih	-11.5009
▁ન	-11.5009
▁pane	-11.5011
ތަ	-11.5011
न्ह	-11.5012
shcata	-11.5013
enen	-11.5013
▁hnu	-11.5014
▁cik	-11.5014
▁local	-11.5015
ĉ	-11.5017
դ	-11.5017
▁agar	-11.5018
fund	-11.5018
ኻ	-11.5019
▁ਨੇ	-11.502
▁niet	-11.5021
ʌn	-11.5021
ढ	-11.5022
ual	-11.5022
ގެން	-11.5023
▁tlo	-11.5023
nico	-11.5024
▁kuo	-11.5024
ނާ	-11.5025
▁full	-11.5025
ngé	-11.5025
हाँ	-11.5026
▁בא	-11.5027
kalo	-11.5028
▁nej	-11.5028
▁буд	-11.5029
▁ս	-11.5029
▁għal	-11.503
▁сайт	-11.503
aid	-11.5032
ntra	-11.5034
য	-11.5035
tine	-11.5036
އު	-11.5036
▁alimwi	-11.5036
eso	-11.5036
ɛli	-11.5037
neq	-11.5037
▁Ein	-11.5037
shima	-11.5038
pica	-11.5038
eja	-11.5039
▁peb	-11.5041
ුව	-11.5041
▁myit	-11.5042
jè	-11.5042
كان	-11.5043
▁Rwot	-11.5044
sci	-11.5044
▁tren	-11.5045
▁wambu	-11.5045
sok	-11.5045
vod	-11.5046
lıq	-11.5048
면	-11.5048
ꞌij	-11.505
▁savo	-11.5052
baw	-11.5052
etse	-11.5052
sting	-11.5053
ying	-11.5053
▁inai	-11.5054
sien	-11.5054
فا	-11.5055
مین	-11.5056
gii	-11.5056
чын	-11.5057
▁''	-11.5059
▁ހަ	-11.5061
lyp	-11.5061
ہر	-11.5062
▁gupai	-11.5062
jap	-11.5063
rif	-11.5063
▁போ	-11.5064
▁Thai	-11.5065
▁nit	-11.5065
▁Ndebele	-11.5065
▁Bɛ	-11.5066
пор	-11.5067
▁hit	-11.5067
▁vien	-11.5068
▁politi	-11.5068
Lu	-11.5069
▁South	-11.5069
▁éta	-11.5069
▁ketin	-11.5069
یە	-11.507
▁тув	-11.5071
dada	-11.5072
▁Day	-11.5074
гьа	-11.5074
rios	-11.5075
nir	-11.5077
▁Polo	-11.5078
xc	-11.5079
▁This	-11.508
▁maku	-11.508
יע	-11.508
аф	-11.5081
被	-11.5081
▁Kol	-11.5081
پا	-11.5082
utik	-11.5082
▁વિ	-11.5084
rena	-11.5084
şe	-11.5085
್ಯ	-11.5085
▁Levi	-11.5085
▁epe	-11.5085
▁ಮು	-11.5087
اني	-11.5087
▁live	-11.5087
▁ditu	-11.5088
▁fahk	-11.5088
szt	-11.5088
▁î	-11.5089
▁kè	-11.5089
ryn	-11.509
ац	-11.509
бит	-11.509
▁все	-11.509
ендә	-11.509
▁⸤	-11.5091
▁sampun	-11.5092
▁pau	-11.5094
ери	-11.5094
ᓚ	-11.5094
電	-11.5095
кш	-11.5095
тро	-11.5095
ться	-11.5096
ৃ	-11.5098
解	-11.5098
▁iwa	-11.5098
▁Khu	-11.5099
shing	-11.51
▁પર	-11.51
gid	-11.51
▁Filip	-11.5101
ương	-11.5101
инди	-11.5102
IM	-11.5102
▁KO	-11.5103
tahi	-11.5103
▁ҡа	-11.5104
थी	-11.5106
cap	-11.5106
▁få	-11.5107
عل	-11.5108
ོན་	-11.5109
▁ಕೊ	-11.511
رض	-11.511
▁ಹಾ	-11.5111
▁toma	-11.5112
ތައް	-11.5112
▁Maka	-11.5112
пар	-11.5112
▁tampi	-11.5113
اپ	-11.5114
▁ilu	-11.5114
bü	-11.5114
▁—¿	-11.5114
llä	-11.5115
▁keta	-11.5116
▁bida	-11.5117
▁बोल	-11.5118
▁áádóó	-11.5118
ື	-11.5118
yɔɔ	-11.512
ચ	-11.512
पिं	-11.5121
ndele	-11.5121
▁কি	-11.5122
ನ್ನು	-11.5123
▁baine	-11.5123
yeli	-11.5123
काल	-11.5124
гч	-11.5124
ⵍⴰ	-11.5124
ခဲ့	-11.5125
▁waan	-11.5125
▁Ik	-11.5126
▁Rus	-11.5127
▁waj	-11.5127
▁मार	-11.5128
ັງ	-11.5129
▁оьз	-11.513
▁Bha	-11.5132
▁пы	-11.5132
ਦੀ	-11.5132
تم	-11.5133
▁ත	-11.5134
▁bako	-11.5135
amp	-11.5136
▁aji	-11.5136
piti	-11.5137
ът	-11.5137
▁sce	-11.5138
mbulu	-11.5139
▁cï	-11.514
lege	-11.514
▁plo	-11.5141
ngelo	-11.5143
vik	-11.5143
▁fale	-11.5145
skih	-11.5146
▁Nov	-11.5146
NS	-11.5147
▁پێ	-11.5147
shta	-11.5148
MS	-11.5148
लक	-11.515
ܸ	-11.5151
▁ऐ	-11.5151
Ch	-11.5152
ulan	-11.5153
mán	-11.5155
test	-11.5155
▁rala	-11.5156
кта	-11.5157
vs	-11.5157
Ꮆ	-11.5157
▁industri	-11.516
ジ	-11.5162
اْ	-11.5163
▁aal	-11.5163
ⵢⴰ	-11.5164
esta	-11.5166
▁allin	-11.5167
ފައި	-11.5167
lica	-11.5169
ಂತ	-11.5169
▁ikki	-11.517
сар	-11.517
schen	-11.517
▁flo	-11.5171
▁adda	-11.5171
цион	-11.5172
▁magi	-11.5173
▁қо	-11.5173
bui	-11.5175
မှ	-11.5175
▁eyi	-11.5177
¦	-11.5177
▁saha	-11.5177
lenga	-11.5177
фе	-11.5177
gni	-11.5178
down	-11.5178
ِي	-11.5179
kaan	-11.5179
▁vera	-11.518
▁Nde	-11.5181
▁plant	-11.5181
▁Xe	-11.5181
vier	-11.5182
NY	-11.5182
သ့	-11.5185
””	-11.5185
örö	-11.5186
▁jú	-11.5186
▁komi	-11.5187
hã	-11.5187
बी	-11.5188
▁ল	-11.5188
шын	-11.5188
▁poo	-11.519
▁song	-11.5191
▁awaknyan	-11.5191
▁manusia	-11.5191
ੜ	-11.5191
▁Korint	-11.5192
▁ਸੀ	-11.5194
ATA	-11.5196
эг	-11.5196
лагъа	-11.5197
ská	-11.5197
电	-11.5197
▁роз	-11.5197
ጎ	-11.5197
лады	-11.5198
AKA	-11.5199
▁Дар	-11.5199
vos	-11.52
▁MLA	-11.52
▁tere	-11.5201
▁Tags	-11.5205
गत	-11.5205
ớ	-11.5206
رة	-11.5206
aoq	-11.5206
জন	-11.5206
ļu	-11.5207
▁pawh	-11.5208
чч	-11.5208
▁иде	-11.5209
ngngé	-11.521
ಥ	-11.5211
جد	-11.5211
▁سب	-11.5212
▁ამ	-11.5212
كر	-11.5212
શે	-11.5212
rõ	-11.5212
ಲೊ	-11.5213
dï	-11.5215
айда	-11.5215
▁Luo	-11.5215
▁App	-11.5215
zna	-11.5217
haa	-11.5217
▁बो	-11.5217
shun	-11.5218
Θ	-11.522
▁prze	-11.522
ᒥᒃ	-11.5221
デ	-11.5221
%)	-11.5221
blu	-11.5221
▁olma	-11.5221
առ	-11.5221
ӧй	-11.5222
▁mondo	-11.5222
tuh	-11.5222
ᓄ	-11.5222
aña	-11.5223
gamit	-11.5225
sian	-11.5227
▁tarai	-11.5228
ško	-11.5228
ggu	-11.5228
▁Bri	-11.5229
ання	-11.523
mà	-11.523
▁Star	-11.523
laş	-11.5231
▁pere	-11.5231
त्त	-11.5233
▁daɣ	-11.5233
▁divers	-11.5234
▁ᑲ	-11.5235
▁гье	-11.5236
▁Maaron	-11.5236
mung	-11.5237
Ꮥ	-11.5237
fua	-11.524
▁piny	-11.524
zí	-11.5241
ێت	-11.5242
ünü	-11.5242
▁बना	-11.5243
णे	-11.5243
▁Mbori	-11.5243
ក្រ	-11.5243
cional	-11.5244
fl	-11.5244
▁dulu	-11.5245
▁नाम	-11.5246
dzu	-11.5246
mach	-11.5246
▁National	-11.5248
renge	-11.5248
mmo	-11.525
wina	-11.525
ډ	-11.5251
▁jet	-11.5251
ети	-11.5251
lijk	-11.5252
▁Tumpa	-11.5253
ıt	-11.5253
reen	-11.5254
▁tongana	-11.5255
ⵓⴷ	-11.5257
▁pacha	-11.5257
▁soi	-11.5258
？	-11.5258
ngei	-11.5259
▁küme	-11.5259
女	-11.5261
▁laban	-11.5261
dji	-11.5263
hira	-11.5264
теп	-11.5267
▁uwe	-11.5269
Pro	-11.527
▁người	-11.5271
▁اين	-11.5272
ngeng	-11.5272
иди	-11.5273
▁etew	-11.5275
NG	-11.5275
ажа	-11.5275
▁mol	-11.5275
▁Ker	-11.5276
▁biasa	-11.5279
ilan	-11.5279
▁saan	-11.528
▁chhi	-11.528
▁Gro	-11.5281
զ	-11.5282
▁কে	-11.5282
▁masih	-11.5282
про	-11.5283
וק	-11.5283
ড	-11.5283
ᒃᓴ	-11.5283
ຈາກ	-11.5283
ός	-11.5284
dle	-11.5285
मो	-11.5285
▁Oni	-11.5285
▁धा	-11.5286
සි	-11.5287
kub	-11.5287
яд	-11.5287
▁Gyihova	-11.5288
▁кӱ	-11.5288
▁जाय	-11.5289
ജ	-11.5289
وڠ	-11.5289
hama	-11.5289
▁moment	-11.529
mbra	-11.5291
▁Jer	-11.5291
▁system	-11.5291
▁which	-11.5292
▁чыл	-11.5293
έρ	-11.5293
▁Ten	-11.5293
▁noo	-11.5295
pjja	-11.5295
ř	-11.5295
▁reh	-11.5295
्‍य	-11.5298
▁пас	-11.5299
▁ماسه	-11.53
нчи	-11.53
▁Dy	-11.5301
▁استفاده	-11.5301
▁jej	-11.5303
▁dingin	-11.5303
دَ	-11.5304
Bin	-11.5304
rth	-11.5304
ము	-11.5304
ɡ̶a	-11.5305
ljen	-11.5305
▁termin	-11.5305
▁Mang	-11.5305
вис	-11.5305
rọ	-11.5306
ടി	-11.5306
tja	-11.5306
знач	-11.5306
ına	-11.5307
rine	-11.5307
▁ýa	-11.5307
▁කර	-11.5309
tiga	-11.5309
लइ	-11.5309
IP	-11.531
Roman	-11.531
▁ⵡⴰ	-11.531
rés	-11.531
৫	-11.5311
፤	-11.5311
▁bok	-11.5312
▁sah	-11.5312
ими	-11.5312
▁sogo	-11.5313
ម្	-11.5314
нц	-11.5314
amento	-11.5314
接	-11.5315
它	-11.5315
बल	-11.5316
बो	-11.5316
mato	-11.5317
▁nishpa	-11.5318
স্ত	-11.5318
әд	-11.5319
▁gwé	-11.532
ໄປ	-11.5322
bema	-11.5323
▁Uma	-11.5325
лаб	-11.5326
▁बी	-11.5326
▁Dit	-11.5326
ජ	-11.5328
▁Cebuano	-11.5328
十	-11.5328
▁txa	-11.5329
▁uut	-11.533
apu	-11.5331
gↄ̃	-11.5331
ሁ	-11.5331
▁خبر	-11.5332
▁our	-11.5332
▁wawa	-11.5332
▁riy	-11.5332
dari	-11.5332
▁teevq	-11.5332
ttaa	-11.5332
ശ	-11.5334
▁two	-11.5336
Oku	-11.5337
শা	-11.5337
▁Of	-11.5338
дел	-11.5338
gaba	-11.5339
९	-11.5339
ެ	-11.534
न्त	-11.534
pane	-11.534
▁Bin	-11.5341
ዶ	-11.5342
ட்டு	-11.5342
▁bira	-11.5343
áil	-11.5344
хай	-11.5345
soq	-11.5346
▁зи	-11.5346
મે	-11.5346
▁jɔ	-11.5346
nete	-11.5346
ᑕᐅ	-11.5347
ňa	-11.5347
armiayi	-11.5348
▁winak	-11.5349
▁код	-11.5349
▁хьа	-11.5349
▁harus	-11.535
zà	-11.535
anil	-11.5351
စား	-11.5352
▁Covid	-11.5352
▁olsem	-11.5353
▁kino	-11.5353
सो	-11.5354
dens	-11.5355
ajj	-11.5355
wydd	-11.5355
ศ	-11.5355
पु	-11.5356
▁kamo	-11.5356
▁aman	-11.5357
▁kilo	-11.5358
▁اوس	-11.5358
▁riẹ	-11.5358
▁Fre	-11.536
dzie	-11.5361
dow	-11.5361
▁बहुत	-11.5361
haan	-11.5362
rne	-11.5362
gane	-11.5362
മാ	-11.5362
lov	-11.5362
▁dob	-11.5362
▁import	-11.5364
▁hune	-11.5365
▁pode	-11.5365
quis	-11.5365
taqa	-11.5366
▁tei	-11.5367
beni	-11.5367
pimi	-11.5367
ⴰⵢ	-11.5367
▁राज्य	-11.5367
his	-11.5368
ombo	-11.5368
▁taon	-11.5369
̱i̱	-11.5369
▁hoy	-11.5369
qta	-11.5369
パ	-11.537
▁eja	-11.5372
িক	-11.5372
▁[[	-11.5373
▁uf	-11.5374
αρ	-11.5374
▁Lingala	-11.5378
éné	-11.5378
αι	-11.5378
জে	-11.5378
ꨲ	-11.5379
感	-11.5379
ewa	-11.538
อน	-11.538
ಗಳು	-11.538
ткен	-11.5382
sow	-11.5382
ɔrɔ	-11.5383
ars	-11.5383
▁comun	-11.5384
▁uan	-11.5384
▁ip	-11.5384
▁pwal	-11.5385
▁garra	-11.5385
▁түр	-11.5385
▁Ako	-11.5386
▁လၢ	-11.5386
▁Herodes	-11.5386
ाक	-11.5386
▁anyị	-11.5387
ýan	-11.5387
▁sę	-11.5389
opi	-11.5389
▁পু	-11.5389
▁ido	-11.539
▁urbo	-11.5392
นี้	-11.5392
▁كان	-11.5392
▁itti	-11.5393
▁take	-11.5393
▁spre	-11.5394
ism	-11.5394
уда	-11.5395
âu	-11.5395
▁kono	-11.5395
озь	-11.5397
▁پي	-11.5397
▁tani	-11.5397
వా	-11.5398
елер	-11.5398
▁kete	-11.5399
lola	-11.5399
sere	-11.5399
ded	-11.54
tni	-11.5402
▁drug	-11.5404
▁nts	-11.5404
▁үе	-11.5405
sca	-11.5405
け	-11.5406
▁Kä	-11.5407
ɨp	-11.5408
iwe	-11.5409
소	-11.5409
▁dels	-11.541
କ୍	-11.541
chí	-11.5411
▁эле	-11.5412
uhu	-11.5412
zela	-11.5413
▁Malay	-11.5415
bä	-11.5415
▁даа	-11.5415
ØªÙ	-11.5415
hki	-11.5418
dt	-11.5418
ंव	-11.5419
▁bunu	-11.5419
▁ет	-11.542
▁Robert	-11.5421
فی	-11.5423
्यू	-11.5423
äär	-11.5424
▁إن	-11.5424
▁\_	-11.5424
چه	-11.5424
▁كل	-11.5429
efa	-11.5429
ders	-11.5429
▁Ruma	-11.5429
टो	-11.5429
▁yaoq	-11.5429
▁кода	-11.543
▁ٻ	-11.5431
▁mou	-11.5432
▁muta	-11.5433
وف	-11.5434
▁տ	-11.5434
▁Parti	-11.5436
гда	-11.5438
WI	-11.5438
▁mira	-11.5439
Ru	-11.544
tzeko	-11.544
▁fis	-11.544
▁ntchito	-11.5444
▁वे	-11.5444
▁kli	-11.5444
psi	-11.5444
ozi	-11.5446
देश	-11.5446
gaga	-11.5448
▁nicht	-11.5448
ẹrẹ	-11.5449
ների	-11.5449
нас	-11.545
▁kɔc	-11.545
ەکانی	-11.545
ымы	-11.5452
▁नु	-11.5452
▁yra	-11.5452
▁One	-11.5453
▁nagpa	-11.5454
ವ್	-11.5456
▁ind	-11.5458
▁deur	-11.5459
ಯೆ	-11.5459
റ്റ	-11.5459
gung	-11.546
moto	-11.546
信	-11.546
ест	-11.5462
▁Մ	-11.5462
▁Pue	-11.5463
▁motor	-11.5463
ڙ	-11.5463
بان	-11.5463
▁evit	-11.5464
▁ø	-11.5465
▁sari	-11.5465
huu	-11.5466
لىك	-11.5466
улар	-11.5467
talo	-11.5467
▁fem	-11.547
kē	-11.547
Wikiibíídiiya	-11.5471
ndak	-11.5471
ສາ	-11.5474
▁ero	-11.5474
▁Adi	-11.5474
OK	-11.5474
تس	-11.5475
mark	-11.5475
лад	-11.5475
▁jedn	-11.5476
▁Nabi	-11.5477
zara	-11.5477
▁nebe	-11.5479
▁jó	-11.5479
ыф	-11.5481
ދާ	-11.5481
ތް	-11.5481
ጸ	-11.5482
▁ќе	-11.5482
▁مخ	-11.5482
▁خان	-11.5482
fas	-11.5483
مه	-11.5484
▁cm	-11.5485
▁Ɲanmiɛn	-11.5485
nyń	-11.5485
݂	-11.5486
▁ი	-11.5486
buna	-11.5487
▁ngem	-11.5487
▁agen	-11.5488
хин	-11.5489
tting	-11.549
▁phao	-11.5491
ມັນ	-11.5491
َلْ	-11.5493
pr	-11.5494
▁proses	-11.5494
▁Usem	-11.5495
tiña	-11.5496
▁mine	-11.5496
▁اب	-11.5498
iky	-11.5498
表	-11.5498
▁zaw	-11.5498
ąą	-11.5499
нн	-11.5499
▁hafa	-11.5499
▁Ná	-11.5501
▁пот	-11.5501
ൈ	-11.5502
▁Quichua	-11.5502
▁डा	-11.5505
▁tv	-11.5506
▁sese	-11.5508
▁vanhu	-11.5508
лаг	-11.5508
rimo	-11.5508
mok	-11.551
ール	-11.551
vanga	-11.5511
joo	-11.5514
▁ات	-11.5514
▁gị	-11.5514
зна	-11.5515
мн	-11.5515
دىڭ	-11.5515
▁hanga	-11.5515
жал	-11.5515
▁Jyoba	-11.5516
▁ond	-11.5516
xix	-11.5517
▁saja	-11.5517
▁ibmar	-11.5518
동	-11.5519
ȝ	-11.552
▁toys	-11.552
شار	-11.552
ču	-11.5522
vere	-11.5522
κε	-11.5523
rije	-11.5523
▁tað	-11.5524
తో	-11.5524
▁mới	-11.5526
▁тал	-11.5526
нга	-11.5527
▁cos	-11.5527
▁acel	-11.5529
由	-11.5529
路	-11.5529
▁etc	-11.553
စာ	-11.5531
▁פּ	-11.5531
னை	-11.5533
▁acu	-11.5533
yamo	-11.5535
▁Wat	-11.5535
mum	-11.5536
▁modo	-11.5536
song	-11.5537
hib	-11.5538
ορ	-11.5538
ndza	-11.5538
daha	-11.5539
giñe	-11.554
napa	-11.554
▁hier	-11.5541
labora	-11.5541
turu	-11.5542
KE	-11.5542
στε	-11.5542
▁мон	-11.5543
keri	-11.5543
▁менән	-11.5544
▁wasi	-11.5545
▁ming	-11.5545
aceae	-11.5545
ված	-11.5547
այն	-11.5548
▁ਹੋ	-11.5548
▁Moises	-11.5548
▁Gado	-11.5548
sadi	-11.5548
制	-11.555
gulu	-11.555
сп	-11.555
rren	-11.555
▁Kirundi	-11.5551
ҳи	-11.5551
UT	-11.5552
▁shuo	-11.5552
▁дека	-11.5555
wyd	-11.5555
бли	-11.5556
▁töi	-11.5557
하는	-11.5558
▁unha	-11.5558
انه	-11.5561
▁kopo	-11.5563
台	-11.5564
▁јер	-11.5564
വി	-11.5565
▁nova	-11.5565
▁Sp	-11.5566
▁taku	-11.5569
ൻ	-11.5569
ಡು	-11.5569
▁puo	-11.5569
▁Andre	-11.557
llapa	-11.5571
ngun	-11.5572
ונג	-11.5572
tanda	-11.5572
სა	-11.5572
▁apre	-11.5573
lubo	-11.5574
гү	-11.5574
ones	-11.5574
▁marka	-11.5575
ګ	-11.5575
▁ĩna	-11.5575
tende	-11.5575
▁Mateo	-11.5575
्‍	-11.5576
▁Ꮎ	-11.5577
▁metod	-11.5579
▁lika	-11.5579
▁Port	-11.558
▁buru	-11.5581
सन	-11.5581
igin	-11.5581
tų	-11.5582
cker	-11.5585
خر	-11.5585
▁hku	-11.5585
▁nwa	-11.5587
▁những	-11.5588
ᒋᐊ	-11.5588
▁Ewe	-11.559
过	-11.5591
▁mehe	-11.5591
然	-11.5591
▁mulai	-11.5593
▁Cun	-11.5595
▁гур	-11.5595
yata	-11.5596
מו	-11.5596
▁Ino	-11.5596
udok	-11.5597
puru	-11.5597
▁карда	-11.5597
▁fyrir	-11.5598
▁pẹlu	-11.5599
part	-11.5599
▁Super	-11.5599
ཚ	-11.56
▁aina	-11.56
▁ibounai	-11.5602
▁sme	-11.5603
алла	-11.5604
mü	-11.5605
лиг	-11.5605
ucha	-11.5605
ccion	-11.5607
ығ	-11.5607
▁पी	-11.5609
過	-11.5609
▁nep	-11.5609
▁dokopa	-11.561
wira	-11.5612
kane	-11.5612
向	-11.5612
ston	-11.5612
▁ova	-11.5613
изм	-11.5614
има	-11.5615
жат	-11.5616
လၢအ	-11.5616
▁casa	-11.5618
konomi	-11.5618
▁мый	-11.5619
▁bout	-11.5619
sled	-11.5619
▁meki	-11.562
nomo	-11.562
азы	-11.562
▁бү	-11.562
▁нә	-11.5621
▁тав	-11.5621
nexa	-11.5622
▁Jean	-11.5622
Zimbabwe	-11.5623
▁nasida	-11.5623
▁Malayalam	-11.5623
▁jest	-11.5624
mission	-11.5624
▁need	-11.5626
ئے	-11.5626
ciu	-11.5626
lán	-11.5627
▁nê	-11.5627
ަ	-11.5627
▁toto	-11.5628
▁éé	-11.5629
▁ਵੀ	-11.563
tzij	-11.563
▁Iloko	-11.563
▁ന	-11.563
▁ló	-11.5632
UA	-11.5633
રો	-11.5634
telo	-11.5635
▁bou	-11.5635
▁kop	-11.5637
▁စ	-11.5638
ندی	-11.564
▁نام	-11.5643
取	-11.5644
Ꭵ	-11.5644
▁keli	-11.5644
▁tetelo	-11.5645
ക്ഷ	-11.5646
fuma	-11.5647
golong	-11.5647
ısı	-11.5647
ιν	-11.565
ទី	-11.5652
▁chuka	-11.5653
qqi	-11.5654
oedd	-11.5654
୍ୟ	-11.5654
▁хи	-11.5655
မှု	-11.5655
▁France	-11.5655
▁ላይ	-11.5655
бут	-11.5657
▁qal	-11.5657
niu	-11.5657
▁peda	-11.5658
cti	-11.5659
spect	-11.5659
jô	-11.5659
▁kò	-11.566
▁otro	-11.566
وج	-11.5662
tation	-11.5662
рым	-11.5662
ކާ	-11.5662
בן	-11.5663
hwɛ	-11.5663
ży	-11.5663
lur	-11.5663
نِ	-11.5663
xɔ	-11.5663
数	-11.5665
▁Tagalog	-11.5665
▁Juli	-11.5665
▁sebagai	-11.5665
▁tsun	-11.5665
round	-11.5666
▁bẹ	-11.5666
▁Tamil	-11.5668
▁Сон	-11.5669
Juan	-11.567
▁biso	-11.567
στη	-11.567
guo	-11.5671
ܰܪ	-11.5671
▁Diosta	-11.5672
ôt	-11.5673
▁jee	-11.5673
atha	-11.5673
லை	-11.5673
rul	-11.5675
▁patut	-11.5675
tšo	-11.5677
llow	-11.5677
teli	-11.5677
▁lix	-11.5679
λο	-11.5679
маг	-11.568
гон	-11.568
tangi	-11.568
▁tɩ	-11.568
mpat	-11.5681
[...]
